/**
  ******************************************************************************
  * @file    failure_prediction_data_params.c
  * @author  AST Embedded Analytics Research Platform
  * @date    2026-03-13T10:58:23+0100
  * @brief   AI Tool Automatic Code Generator for Embedded NN computing
  ******************************************************************************
  * Copyright (c) 2026 STMicroelectronics.
  * All rights reserved.
  *
  * This software is licensed under terms that can be found in the LICENSE file
  * in the root directory of this software component.
  * If no LICENSE file comes with this software, it is provided AS-IS.
  ******************************************************************************
  */

#include "failure_prediction_data_params.h"


/**  Activations Section  ****************************************************/
ai_handle g_failure_prediction_activations_table[1 + 2] = {
  AI_HANDLE_PTR(AI_MAGIC_MARKER),
  AI_HANDLE_PTR(NULL),
  AI_HANDLE_PTR(AI_MAGIC_MARKER),
};




/**  Weights Section  ********************************************************/
AI_ALIGNED(32)
const ai_u64 s_failure_prediction_weights_array_u64[3067] = {
  0xbe10fd3ebe280b2eU, 0xbdc68b12bdf7addbU, 0xbd520508bd99d1a1U, 0x3b4a49a1bcc47f62U,
  0x3d5a3d2b3cf40b06U, 0x3dd3f1ef3da30a32U, 0x3e109e1f3df7c9ecU, 0x3e3b2b873e250533U,
  0x155e702b86c07443U, 0xa9c09f5550ab2c50U, 0x905b917005a340a8U, 0xa98870249a40a4a5U,
  0xac50375bc01a9730U, 0xa09a52507cab00b3U, 0x5991901861705725U, 0x1705d8770022a30U,
  0xd05eaae099773013U, 0xcbe7a0cbe75029bbU, 0x745070a7807b6c80U, 0x30738470272780a4U,
  0x982570d98840a442U, 0x28602496b0373c50U, 0xc088bd30c279605aU, 0x2dc5c084acb0993dU,
  0xc8505add400b8530U, 0xd0a8b58029852066U, 0xc69720ad6920b9b4U, 0xd2d0165a2074a660U,
  0x4031862018286015U, 0x3177405b62401682U, 0x66e01ca970614db0U, 0x207822800d636022U,
  0xa7c76042637059b3U, 0x4780a49770b8dac0U, 0x802bb3104c693022U, 0x4b4b09a44404452U,
  0xaba0a70380972980U, 0x607839504d77c08cU, 0x22b420c3697012e5U, 0x9240d1b4f0224790U,
  0x2047037092279071U, 0x93b830a951508c99U, 0xbb50bc7650b21870U, 0xf0bba4d088a5303aU,
  0x52d3a042b4c0d168U, 0x35a08748c0715aa0U, 0x80c39b7046c48094U, 0x56a6600752c07776U,
  0x5960ba94209852c0U, 0x60a8dd30a93890d7U, 0x6c7580d458f09746U, 0x6db0ac2d50ca6490U,
  0x6027db6091745041U, 0x8c35606982e07439U, 0xaab09c4a80c924c0U, 0xc0837860aa5890c2U,
  0xcc77701559c03ac6U, 0x5a8008aa90cb7350U, 0x60dd8500699b30cdU, 0x24c5c0a488804a6bU,
  0x75d0a5b5d0781460U, 0x50e552304c9ae076U, 0x71d3304718503548U, 0xe5a0b502309c9c20U,
  0x50042b706b5da0a3U, 0x53960662950abb1U, 0x91007ca3807dd770U, 0x20474290ac5830adU,
  0x5da380a836f0d98aU, 0xc6f0abb7409a1860U, 0xa09d134086b890a4U, 0x1d8a105a01908acaU,
  0xa5d0482390306630U, 0x50d84040659fc0b4U, 0xec34c01785701b3cU, 0x85a05e3a204172c0U,
  0x10547b204426707dU, 0x77c2e0a9d6409256U, 0x7a90d972b0773a40U, 0x604a695045194038U,
  0x2b88d0b898300c50U, 0x5990527aa0200630U, 0x9053255098e14063U, 0xab9640c6d6709976U,
  0x17d03ce6802b9a30U, 0x70322370aba48062U, 0x659630dda7408b39U, 0x27b0a8a6b08a9510U,
  0x50129a7052477088U, 0x33baf0399eb06d54U, 0x86a09a5c80750540U, 0x60783d70a5565046U,
  0xb54630535b302f29U, 0x1b70699bb0c66dc0U, 0x306bd9d0897ad065U, 0x88baa022c2103ac2U,
  0x637035921066a8a0U, 0x900593207586d065U, 0x2b22503a79106874U, 0xb6702e6d80e7a4b0U,
  0x30857bf06465c072U, 0x9a5aa07b6a9006a7U, 0x74807059d07786b0U, 0x6077bc90269410b8U,
  0xbd39d765bc9197aeU, 0xbd34927a3c9ff184U, 0x3c15e51dbcb68c6aU, 0xbc5b0227bc3a90a0U,
  0xbb805577bcc3a5d8U, 0x3c69df92bbba0352U, 0xbc61e50a3c6a3e48U, 0x3cf9b5c33cd9d85dU,
  0x3c268e353cd11ceaU, 0xbd63f379bd1bf146U, 0xbc06ac3bbcc3e2d4U, 0x3d37859cbda8b651U,
  0xbc660c7cbce7415aU, 0x3d034edb3cc4628eU, 0xbcc05bcdbbb08f03U, 0xbceb131dbd016ce7U,
  0x3a810a66bd4d7084U, 0xbbdf8e49bceb6c8cU, 0xbc2da63ebc16d242U, 0xbcbb10d9bbccab01U,
  0xbd03a70abd02f622U, 0x3cba6fca3b6e6645U, 0x3cafbd523c79c3e9U, 0xbc9a5fccbc038de0U,
  0xbd15e1bbbb9079e7U, 0xbc50211cbc3c7704U, 0xbd8af9dcbd1d5e14U, 0xbc7c1347bc48284dU,
  0xbc3c8beabaa69c8cU, 0xbb398593bdc9c30bU, 0xbca04c4bbc84b5e2U, 0x3c8071da3ab03529U,
  0xbceef83dbd503bc0U, 0x3b921b86bca63e7cU, 0xbd295504bc8e1bf0U, 0xbd96721dbcaffba7U,
  0xbc16eb29bb35f6d2U, 0xbbb9a5023cb6dc92U, 0x3c4a8b9abcb1b46cU, 0xbbf768ddbbba13d6U,
  0xbcd131b43c24f240U, 0x3cc7ccfb3bd5e430U, 0x3c7bd9f93b8a308dU, 0x3b8289923c0698deU,
  0xbcb6361ebc993e37U, 0x3c97e1afbc9a365fU, 0xbd1ca13ebd69d4d5U, 0xbd847daebd283666U,
  0x3b24df0fbb21186dU, 0x3b30ddee3b3d5dbfU, 0xbca8450f3ba519fbU, 0x3c922ec5bda829c9U,
  0x3c804a71bd562119U, 0x3c317fcabd0bfea1U, 0x3d0cb1c9bc913d8cU, 0x3a9dac53bcdd0c9fU,
  0xbcd34b48bd7bfeffU, 0xbd03be13bc874df5U, 0x3c9a0f8bbd830099U, 0xbd2d44873d084883U,
  0xbb7180c6bd22bb4cU, 0xbd19054a3c4fdfeaU, 0xbb789422bc922f0dU, 0xbb40212ebd87e931U,
  0x3c25b486bd2c5e14U, 0xbc8fe980bd2dbf2bU, 0xbc616f0fbba36abfU, 0xbd5d5cf3bc8cec7aU,
  0x3ced2b89bc4f63b0U, 0x3c7762dcbd4f5a11U, 0xbbdb69a1bb2370a8U, 0x3c327f09bd037a55U,
  0xbc1a715dbb91ab57U, 0xbb814a633c9f830fU, 0x3c44ffd53809ca3bU, 0x3cb6b56b3c64093bU,
  0xbc48d2e8bcc1ffedU, 0xbcba23ba3c896b29U, 0x3bff8ad13b9046c0U, 0x3c7fdb59bd1ad931U,
  0xbbcfe9d9bd3653a1U, 0xbc8e1f363bb0506aU, 0xbd27b12d3c8bfe93U, 0xbcd3a4a9bae50f70U,
  0xbd1a0882bcdd79f8U, 0x3ced29a93c8a49cfU, 0xbcc87222bc682f45U, 0x3cbd63653bbd7d77U,
  0xbd1e2cd7bcaf86dcU, 0x3c94e605bcca3c7fU, 0xbcde2be4bc0cad17U, 0x3c25161f3c23069cU,
  0x3cb3af15bb35461cU, 0xbd81aef33c02b596U, 0xbcb043a2bcfb53fdU, 0xbc4bc0d6bb57949fU,
  0xbd47b9643ba19ce5U, 0x3ce133223ca2db86U, 0x3ae89b9fbc8dc996U, 0xbd28f5c73bffc96fU,
  0x3c886bfbbd1fc8bdU, 0xbd306c0b3bfb629eU, 0x3bc3a531bd06864dU, 0x3d08874dbd418350U,
  0x3ba3ead4396d5937U, 0xbd147c273c327fcbU, 0x3c5d49063b0aa603U, 0xbb647fa3bc135b9eU,
  0xbd51963aba43772aU, 0xbc752a5b3cd28d6fU, 0xbb9c3a8fbd15110dU, 0xbc0fe2ee3cc6d9b1U,
  0xbc62a5593ca8c88cU, 0xbcc211f0bd199480U, 0xbd046fc2bc4ab0a3U, 0x3c16ddee3c9aa03eU,
  0x3c85ff11bc95d0e2U, 0xbcad0e66bc075586U, 0x3bfc6bad3d0894c6U, 0x3cbb8f85bb0d846cU,
  0x3cc2d18e3c83035dU, 0xbd0bd005bc9bd047U, 0xbb5c7d7bbc90f3a7U, 0xbd06bb3fbcbab369U,
  0xbc5d30883b09023eU, 0xbdf9a854bd5748b0U, 0xbd0ee4a5bbd67192U, 0x3cb0159ebcace134U,
  0xc06ceeffc0954fe6U, 0xc0152a21c03cb556U, 0xbf914565bfd9a705U, 0xbe6a69e9bf24e6dbU,
  0x3f1d0ddb3e4d3779U, 0x3fd08d733f8b9cf2U, 0x403d2299401019beU, 0x409539f1406ad763U,
  0x6a789878a6768b99U, 0x7887869967896666U, 0x8676888977488798U, 0x977cc6578b946799U,
  0x868695a886656774U, 0x5997778688885677U, 0x87a7598798876986U, 0x8788879a989699a9U,
  0x789a87969966a974U, 0x9667a87bab786675U, 0x87997b57a6686a96U, 0x97966c86aa969679U,
  0x568686a77a657777U, 0x746977767a8aa969U, 0x9a97687667698884U, 0xba87ac6a897888a8U,
  0x7688799a98685589U, 0x9a77977867788e67U, 0x9787767686567a86U, 0x7579bb679a8a7668U,
  0x7779a49a98896789U, 0x97b878889776c696U, 0xa76899a6b8698a86U, 0x5888867a66778797U,
  0x9786a797a9997a93U, 0x97aa79a494776a39U, 0x67897a6977898886U, 0xa579597859779798U,
  0xb978764899aa7879U, 0x6a74a6885a8697a8U, 0x48888a7b8789778bU, 0x9798a68795888877U,
  0x76a85788b866ba79U, 0x647679779798a499U, 0x5779785977468586U, 0x86855567986b896aU,
  0x8b9858877987768aU, 0x96a6776686889788U, 0x8877784ad8479678U, 0x4867898867947967U,
  0x9879677787688879U, 0x5986477a947757b5U, 0x99797aa857888666U, 0xc668c367ba797566U,
  0x9976a9c98a6a8787U, 0x738cb887c75a8998U, 0x7667697579688986U, 0xb896a5775a7676b9U,
  0x69a7678b78988788U, 0xa7786786a8887698U, 0x677897b67848a977U, 0x8582b56885726857U,
  0x7298599799787795U, 0x6a57778777877998U, 0x5898a78607596686U, 0x98a878678899a8a7U,
  0x6888778787978788U, 0xa78759587579979aU, 0x5889799858888987U, 0xba77a8988988876aU,
  0xb585a9a84a849786U, 0x6b8477988a97ab79U, 0x5a8996886799888aU, 0xb9688b8698887767U,
  0x9778678688969899U, 0x6798789797989e98U, 0x667a695689a88876U, 0x777a377877697579U,
  0x659857466983a874U, 0x77a687a9878986a8U, 0x88a796a7c75a787aU, 0xa668788777749968U,
  0x877aa8789a95a798U, 0x699888a686876946U, 0x6967799887887598U, 0x4787a579457a7867U,
  0xd59666577444757aU, 0x936a588847885677U, 0x5698788a88667989U, 0x5898a8886a86875aU,
  0x8657a78678898886U, 0xa767889857789b97U, 0x9979898677766688U, 0x888989b66c9b8667U,
  0x9488bb987977879bU, 0x997888856879a8a8U, 0x58a7b7b7a7b9a786U, 0xb88888aa66687578U,
  0x96899979867a988cU, 0x5878495d6c7799bbU, 0x6677888978898b66U, 0x676a9c6688768497U,
  0xa66697e8598a778aU, 0x89867898d89a5677U, 0xa55a65656776689bU, 0xb867957868998657U,
  0x8778776778968988U, 0x5a68898a67777469U, 0x8986786777a7a768U, 0x8a774aa76c837985U,
  0x6277a87976896748U, 0xa958789997865657U, 0x577967b567487685U, 0x3667777878996867U,
  0x6878597686786687U, 0xa688464468779626U, 0x9887748888897696U, 0x7997ba8776978899U,
  0x598a86475b7c7687U, 0x745468886889a898U, 0x558996848899888aU, 0xa98a9a8966959778U,
  0x7858699b79679ba7U, 0x69a8997958788589U, 0x656a798878a97788U, 0x797ea8b98a938a69U,
  0x766677a9879c8779U, 0x77968897788859b8U, 0x8997a697b8675885U, 0x7968889a876a9898U,
  0x778957876676857aU, 0x566a878c77686747U, 0x7887996867986b89U, 0xa7859b87b5767778U,
  0x387857b7aa859689U, 0x769c8998a76ba9a7U, 0xa848767998899789U, 0xaa668a87798878a9U,
  0x76a7688a4788bb87U, 0x859777978767a387U, 0x6787996786c99978U, 0x85737a5783948677U,
  0x9868876586738885U, 0x999878a769884798U, 0xa89787977847a885U, 0x4888998769758868U,
  0x777958899976a87aU, 0x9787a6856b777888U, 0x986888a968788587U, 0xb9979b7898968988U,
  0xa7778859a9b89888U, 0x7b837678a8696999U, 0xb489768597777696U, 0x6986936987987787U,
  0x96676868a6667569U, 0x469676775866a598U, 0x99767659874a8788U, 0x767249b88b556998U,
  0x7387a6b667747956U, 0x67586797898799a7U, 0xa667597997589779U, 0xa888899986757657U,
  0x7778c7966787858aU, 0x4799b98289788665U, 0x8887857798779769U, 0x3a66a7798a766796U,
  0xa78967b9a65a7776U, 0x8b7868877b789996U, 0x86a97a6788698777U, 0xa79987a85a68885aU,
  0x87587796c6777478U, 0x8797799987767d86U, 0xa789976987c98988U, 0x6983c8977a596699U,
  0x7c8989a6677497a7U, 0x8798689787777677U, 0x7967b6a877a7968bU, 0xa997767a88768968U,
  0x8878868778768865U, 0x579998b394796789U, 0x6978889798897597U, 0x39a6b59876859686U,
  0x56788899b879887aU, 0x945da688888a6999U, 0x99677a8676878889U, 0xa886547555998669U,
  0x98b996655678b497U, 0x55676888a77a5a89U, 0x886679a67976aa77U, 0x76897877798c7675U,
  0x66665885987b6656U, 0xa64987689888b967U, 0x8666a888b7569786U, 0xb867877678648899U,
  0x877967899975796dU, 0x7878c78889876748U, 0xa797768897778986U, 0xc76665884a778a96U,
  0x468a59c856987797U, 0x78a86998d9667996U, 0x87b9789568769886U, 0xa5899a66958778a8U,
  0x89a8789a66967a89U, 0xa76789778789a7a6U, 0x8989776989665777U, 0x6a8c55467c628787U,
  0x8977387686649896U, 0xa686786688885698U, 0x97a8a79938466779U, 0xd6a87759787b7767U,
  0x7775498766759675U, 0x6979b8a59c88994bU, 0x8786979997677b96U, 0x67994b8777878876U,
  0x978787b775a77669U, 0x9897a678b5967878U, 0x6746658967756786U, 0x8789656775788899U,
  0x8878676988996677U, 0x4687866758767866U, 0x8977796778266668U, 0x7877b8886c999a8aU,
  0x6d889a9669739659U, 0xa767777988796768U, 0x9967576827b7a675U, 0xc998869597bb8798U,
  0x887836698a8a9788U, 0x768a56738578a66bU, 0x8888888859677996U, 0xca78628675876887U,
  0x9764a75896677687U, 0x87b39578c6654999U, 0x44789487796a977bU, 0x79a6957a97877689U,
  0x7856696686899766U, 0x6767999768879776U, 0x6979689687667988U, 0x9786b577828b779aU,
  0x8297997698688695U, 0xa6a8788776889797U, 0x86965659c8669979U, 0x6968866668697768U,
  0x8789586879978774U, 0x68697765886676b9U, 0x88777a9667778a66U, 0xa876a27846798469U,
  0x76757697b5476a97U, 0x68569a7899866a89U, 0x8959a67967786773U, 0xa779467787796657U,
  0x6897977a776755a8U, 0x6678976999676786U, 0xa999776886c68897U, 0x869aa65683556566U,
  0x638789a887888779U, 0x8996887878795897U, 0xa6a7687677585885U, 0x869868a976a56888U,
  0x679878776676868aU, 0x578888685b889684U, 0x8776766757789878U, 0xb897857847798599U,
  0xb679868899567677U, 0x7a758878979a9679U, 0x46a7797a675a7778U, 0x685767a686997967U,
  0x6878789446995b99U, 0x96668966a8688577U, 0x6978889876366987U, 0x877529899298769aU,
  0x7e97857978889888U, 0x9978879979865657U, 0x875878580859978aU, 0xa6976857866a6a78U,
  0x878678667a678a99U, 0xa798685b9778882aU, 0x67768486a9679b68U, 0x4887468855989887U,
  0xb86578c878a57989U, 0x969486888987a989U, 0x5968677567797684U, 0x487999876a988869U,
  0x7968a79b67986697U, 0x94996889c9879d79U, 0xaa66987788585777U, 0x8978c556659d8976U,
  0x9488aa8a698268b9U, 0x8957867978766898U, 0x6679b5976889b989U, 0xa767797987a88698U,
  0x8787c96777687979U, 0xb96678757a88a848U, 0x6898776878778489U, 0x68787b7948998766U,
  0x858b5957798a8989U, 0x93aa8768a689a759U, 0x754678767988779cU, 0x7876a86986978797U,
  0x896797754986ab7aU, 0x7799768998788389U, 0x7a8787a676297677U, 0x798bb59977697777U,
  0x9a96578987846999U, 0x78a9797799785787U, 0xa75979b948987878U, 0xb99778996895a898U,
  0x8877889678778766U, 0x767699496a8866b6U, 0x5888888878776889U, 0xb897978888999778U,
  0xb66898a8a6b79888U, 0x74645678747a8876U, 0x7778597967756675U, 0xb77a5c8777768786U,
  0x89a9777938785866U, 0x9998876878786378U, 0x8799886987867978U, 0x767296596c977867U,
  0x9588496985997956U, 0x76a978688989a749U, 0x67679656b9878988U, 0xc8987877899a8867U,
  0x8688387678777895U, 0x8896476d9b8988c6U, 0xa869869797688678U, 0x5a764479ab978586U,
  0x5777887754aa8978U, 0x8c78a778b57a9598U, 0x88488b8987768984U, 0x49a8668899896876U,
  0x69677785b6987796U, 0x76769686876a7a58U, 0x8876789789b59869U, 0x86736576657c8686U,
  0x8b68b48686838799U, 0x89b7977979766898U, 0x7988b98957a87686U, 0x786897978a6a7997U,
  0x7898a77875769985U, 0x886898868798aab9U, 0x9768769787889986U, 0xb6666c8896777767U,
  0x967957b679a67689U, 0x85ab799767658578U, 0xb6a6a68b679a8874U, 0xaa95ab7787998876U,
  0x9868999a57669b88U, 0x98977698a798aa68U, 0x798a97778777a778U, 0x887c9478959b8a98U,
  0x8c686696968779b6U, 0x5667876976777697U, 0xa6774a96c7a9997aU, 0xa767789797786a57U,
  0x898968878a97978bU, 0x88a8667688979738U, 0x67788b997888778aU, 0x6a8a968858689897U,
  0xb78aa64866949589U, 0x9a8b56893aa69a86U, 0xb96866699787778aU, 0x56796a8577867697U,
  0x7667766649965a66U, 0x5587578798876979U, 0x6678696678396777U, 0x88868a569b867788U,
  0x8b67b5a6767996a9U, 0x8646975789797657U, 0xa87786a7a8995779U, 0x8957887678569776U,
  0x7777478875778975U, 0x4979b7938a878745U, 0x9798756858669779U, 0x958998998a766696U,
  0x5977964876669686U, 0x66ab5a6946968887U, 0x5aa6778ba86a7874U, 0x99867b8895667797U,
  0x77675886ba7988a8U, 0x85879798a8768267U, 0xa995986677b97978U, 0x788495b986ab9986U,
  0x769779a5999a67bcU, 0x694988589689b678U, 0x686866a8b8767676U, 0x2767779588666777U,
  0x8887c89668785596U, 0xa976589a79785827U, 0xa787777697888698U, 0x367ab48886887679U,
  0x869a99c756456a89U, 0x889c96885a867997U, 0x76976966778a687bU, 0xa897566869797759U,
  0x98a8667677999b86U, 0x8989769778975c77U, 0x898679a979869897U, 0x75729a476b927565U,
  0x8a7775aa866a8774U, 0x96a8788977765738U, 0x67a9576618a96679U, 0x767786a988b59967U,
  0x886866978788997bU, 0x7998a979788858caU, 0x877786688879888aU, 0x7797479686887699U,
  0xb86a797897a48576U, 0x9d6a5668b7959697U, 0x7847ab6587959977U, 0x56898b9876798898U,
  0x8886698677896879U, 0xa4776667a88aad67U, 0x868567a888977786U, 0x768bca7766698685U,
  0x7577b586798b6997U, 0x874976956988a8b6U, 0xa9586669d846968aU, 0xb8a8998676998787U,
  0x6778b8669668798dU, 0x678867a598779875U, 0x6678757899999669U, 0x5788597848788467U,
  0x6877a7695b78799aU, 0x769b78766988a559U, 0x856a9896987a7885U, 0x68986c96a7876797U,
  0x8847976558995878U, 0x6767879797768667U, 0x9589897976885686U, 0x9a86c67775977a6aU,
  0x838776a976945756U, 0x95a86787897896a7U, 0x677848477895b875U, 0xc99788688955a988U,
  0x777548787a878977U, 0x5977485c8b996689U, 0x6897867988768666U, 0x56888976a9699979U,
  0x8788888895ab7588U, 0x8aab9988a98a56a9U, 0xa6598b7a89967977U, 0x57984b6665897869U,
  0x8678876899965a78U, 0xa987786687957867U, 0x7565788686b75667U, 0x867d585783876655U,
  0x63776759877c678aU, 0x8768788879796868U, 0x7688578797867786U, 0x8678677776756678U,
  0x7766487769865875U, 0x6a77c64d9b8687b5U, 0x8886786897996888U, 0xc875b776a6976a98U,
  0xaa67592895356676U, 0x85869587547485a6U, 0x8aa9987568987784U, 0xa8788c8676797668U,
  0x7887498979887b87U, 0x6769968898675c87U, 0x9985868888c8aa98U, 0x8688bb5996a58776U,
  0x7877998978796786U, 0xa958778686876a88U, 0x58a859889886b78bU, 0x3978787789676667U,
  0x978a59869878568cU, 0x7698687569878979U, 0x9799677996967896U, 0xd9775c87a686948aU,
  0x8799595889448787U, 0x845b86794a895765U, 0xa6598975889a787bU, 0x789767aa67898877U,
  0x76a78767596a7687U, 0x9a68656958986a98U, 0x7797768788a65878U, 0x777658a87c7b8967U,
  0x6c979a7697767755U, 0x679669689886b657U, 0x6957689628667886U, 0x29885665876a7698U,
  0x8796785866696883U, 0x7877597a857896bbU, 0x8879899798776685U, 0x4969b69769796779U,
  0xb67577a896799687U, 0x97879a86b46ba578U, 0x89b77b646969677bU, 0xa8764a9795768856U,
  0x86977969566a8756U, 0x6689999998696d77U, 0x5886767689675878U, 0x7989bb9775957587U,
  0x7a79569667929885U, 0x8697779989785668U, 0x7798586967666875U, 0x38887877867c8778U,
  0x8886466879699684U, 0x9768669486876726U, 0x77787a6968667789U, 0x7578b4794b688a78U,
  0x5788765868577965U, 0x76a89677ab86b979U, 0x86a66776786a8774U, 0x88964b9879688898U,
  0x8667677a39767c99U, 0x58999766b9757889U, 0x677777a98788b687U, 0x8872b796ab726789U,
  0x88878a49989b777bU, 0x8aa8886688796677U, 0x878948b6a9a65879U, 0xe988789968957787U,
  0x876748799669a678U, 0x886656a9aa89a6c9U, 0x6888948877987a97U, 0x5968a58765897687U,
  0xa668888667bb7886U, 0x9366488995a79aa9U, 0x6878a99997557984U, 0x8699977668879759U,
  0x79768887ca785667U, 0xb887886768867b69U, 0x768988a987859568U, 0x87996ab97a947a6aU,
  0x7b887b5987966887U, 0x79a899698878b698U, 0x8888685888a85675U, 0x967878a999979678U,
  0x78994788567a9a8bU, 0x9777b75997787867U, 0x58878b77a799979aU, 0x9779aa887898986aU,
  0x5676586767668776U, 0x75977896b87a8877U, 0x8a49687b978a8788U, 0xa889aa7776798757U,
  0x8a77889467799679U, 0x5768976798779567U, 0x79767698895a7a99U, 0x7894249773677987U,
  0x7487898778957976U, 0x78a8897a77874648U, 0x997789a867776786U, 0x8968779679998897U,
  0x7766b9986a97867bU, 0x987a497b8688869aU, 0x9889879779786696U, 0x677a4a87aa778787U,
  0x6997a9a6a8359677U, 0x7b937878387a6697U, 0x8987899799968894U, 0x9a9884978778986aU,
  0x7988966547795487U, 0xa477898788697288U, 0x8989778779969997U, 0x787837977a637868U,
  0x92784856766b8644U, 0x8996769977763767U, 0x7667595956694879U, 0xb9888895778a6967U,
  0x7886878867878697U, 0x688698946a966686U, 0x9886786899867989U, 0xc5854478b7786999U,
  0x8876878678599977U, 0x7a59967848967489U, 0x8966998786898778U, 0x4676777765688768U,
  0x7997876a89977585U, 0xa5677677788a5367U, 0x7577798679659599U, 0x7986397892679666U,
  0x9498945798847965U, 0x6668686766768667U, 0x5978585748a9667aU, 0x2657698a995a6777U,
  0x886968687767676bU, 0x9765566697676966U, 0x6897996776889589U, 0x5877967679667a75U,
  0x658967a759658775U, 0x96aba6779a868566U, 0x45b67a8496747788U, 0xa799786666778967U,
  0x8897886667979897U, 0x75797a8877879967U, 0x8898986989369689U, 0x787676879564896aU,
  0x86896a787866775bU, 0x87a7789a77863647U, 0xa697587968679788U, 0xa788988776ab6a87U,
  0x8888a6877769a663U, 0x878798958587882aU, 0x5788847997788a86U, 0xc5758599a4788766U,
  0xa98779b8847b7878U, 0x999656865889a5a9U, 0x95596a6a8797678cU, 0x67699b9995967885U,
  0x8748a89596789496U, 0x6577777888778e87U, 0x7899786988996979U, 0x7885ba7975959a86U,
  0x8a88cb999878799bU, 0x97788777987989a9U, 0x775998a7b78a967aU, 0x6768869686668697U,
  0x686a677768896a69U, 0x578676559977879bU, 0x98887986a7675687U, 0x869a968879888677U,
  0x976698a7ab6b8a99U, 0x858b89664ba69599U, 0x7a48989a966a8894U, 0x69899a6689777897U,
  0x79a8869978866489U, 0x79696799a8965377U, 0x6889767786a58777U, 0x766938785b6a797aU,
  0x7688a77766837964U, 0x96a6797668877977U, 0x59a889a6984aa674U, 0xa877875a89695668U,
  0x78759887698a677aU, 0xb97756aa6777a9c9U, 0x8887846959989666U, 0x5597b5799a896876U,
  0x6674779885698869U, 0x69859776485aa686U, 0xa5a87a8767959883U, 0x78865b8965778789U,
  0x86487776aa7aab79U, 0x8988887997857367U, 0x968587588788a787U, 0x787939678557878aU,
  0x93997648787c8766U, 0x5787876687879686U, 0x87898a87c8596785U, 0xb778689986997868U,
  0x687838677a769864U, 0x966788848398973aU, 0x97787a89a7877a79U, 0x46798686b8689998U,
  0xa575a8c9789c8978U, 0x6642a9767987a766U, 0x57a7969b776a8775U, 0x8776a9a87a777768U,
  0x79b8779a3866aa77U, 0xb588798877768c68U, 0x967888567759a678U, 0x8775c6a7ab587567U,
  0x7796a65978779695U, 0x9778787979769767U, 0x677788783778498aU, 0xa787986888899767U,
  0x889699897988956aU, 0x6999475a9678887bU, 0x6977888769878998U, 0x8896448699778985U,
  0x686958976b569879U, 0x88749a78698aa698U, 0x585895896677788cU, 0x97686b79aa789868U,
  0x7977688839994969U, 0x7796766798858578U, 0x6787788989b97967U, 0x8874ab9795646588U,
  0x96879866876ba85bU, 0x67a786777988b658U, 0x6888a896a757688bU, 0xa988979a78868868U,
  0x878787799b8a9a75U, 0x987738b279889618U, 0x6787999899989798U, 0x58895b7769978988U,
  0xc57997c768878877U, 0x69b66778a7a95868U, 0x57686a6678758796U, 0xa6978a5769977979U,
  0x66a7696549985589U, 0xb568869777866b76U, 0x9886787679977989U, 0x8689c68677698979U,
  0x89885879698ca989U, 0x8757988878767867U, 0x6776696657b75889U, 0xd697769877767688U,
  0x887977a775785897U, 0xa986b698a9688996U, 0x6888869988868695U, 0x5578679878777799U,
  0xa77a58b757777887U, 0x69979698a9757596U, 0x777a7875879a7873U, 0xa979bb9785968799U,
  0x69476979a7899398U, 0xa476698778779388U, 0x687a78898748a778U, 0x987557599c758976U,
  0x897985a7998398bbU, 0x8a587887667789b8U, 0x97a7a756d668b588U, 0x28776868675a8987U,
  0x6766869966868979U, 0x9776699577789757U, 0x688886775878856aU, 0x96aa99789a988987U,
  0xc78758a888648886U, 0x8a498a9736877959U, 0xa876966989a78889U, 0xca89748766768778U,
  0x7687777979767498U, 0x7667677668898686U, 0x9779787678676976U, 0x8772358893ac8664U,
  0x9b96a685797a999bU, 0x7699877889794897U, 0x587769a6d6467676U, 0x36689787797786a7U,
  0x6787486888857989U, 0x799789a465777714U, 0x5867887798976577U, 0x8899666974896498U,
  0x4687779889a59878U, 0x967a9798a4695867U, 0x48799987886a878aU, 0xb8985b9968867986U,
  0x7868688589675787U, 0x6579689767868486U, 0x7887886888596588U, 0x77784a78aa9b8b99U,
  0x7877656a98747965U, 0x664787796787b988U, 0x6898a67987598976U, 0x395799a898566878U,
  0x688a477779866675U, 0x8787c65c578766a4U, 0x6888757757699785U, 0x4878638985989996U,
  0x978656b956646687U, 0x9d78767945697589U, 0x7789657769657978U, 0x8867776887777758U,
  0x8768897636799c79U, 0x6778668648877869U, 0xa6857796964a5867U, 0x7862ab9774687a66U,
  0x8698575879849864U, 0x679898a98976a8a7U, 0x77a9586848888876U, 0xa989786b79a67777U,
  0x88767878a7968978U, 0xa88696758c7796a6U, 0x8777848768787c86U, 0xa897578997667887U,
  0x5a7a67b7a9bb7688U, 0x98735988495b65a9U, 0x68779969889a7989U, 0x557a587876897857U,
  0x9977876bc9867978U, 0x7777796768679186U, 0x9787989776c89788U, 0x777758a75b6d7668U,
  0x7688a8869a84679bU, 0x67a787997689b9b7U, 0x79886875b8a76689U, 0x2877988969668878U,
  0x9789786787a66576U, 0x5685999578865656U, 0x7878749778869887U, 0x6a65437799997a7aU,
  0x5a7a9936959b6687U, 0x726b988759a68a86U, 0x988999797777688bU, 0x69976aa8587787a6U,
  0x6866598757987599U, 0x5a68877698887b79U, 0xa688879788387a86U, 0x897225585b88769aU,
  0x7677a6a7997299b3U, 0x6877969966896858U, 0xa657989887a98784U, 0x9687966787787768U,
  0x6779889765696679U, 0x79788781a4779827U, 0x7798777889699b85U, 0x498996677b779866U,
  0x589696c7a9787789U, 0x756b769955969a97U, 0x48867898768a788aU, 0xc6685478988888a7U,
  0x6657578897779579U, 0x8989987878785e88U, 0x9789876688c67668U, 0x9974a896968c7877U,
  0x637699a9998867a5U, 0x88b88796888765a7U, 0xa797a6a978a78777U, 0xa867786989798677U,
  0x989a86888797888bU, 0x8697586c597877d5U, 0x88878a98a7876586U, 0xc579a37868878976U,
  0x76899977b8997889U, 0x82489967a4765989U, 0x8a99886876668778U, 0xb758859779797878U,
  0x78a6769ac6978aa9U, 0x6887589797966288U, 0x7688766688b98688U, 0x7785b7558b6b9668U,
  0x88888a6988637959U, 0x895667956878a987U, 0x77588756b847a989U, 0x267779a599698688U,
  0x9877765676674784U, 0x587849448a785787U, 0x9697977669797875U, 0x4969897849768967U,
  0x9685872956486978U, 0x6a7998683a858876U, 0xb7788785988a7875U, 0x588964a6688897a8U,
  0x79a76897a8996986U, 0x79989997a896a357U, 0xa885796789475687U, 0x8575667799877477U,
  0x9b68765799868796U, 0x8756778877867757U, 0x58a8568687595879U, 0x5969788a78749997U,
  0x778947666a878873U, 0x699759737468984aU, 0x877886a778998b78U, 0xa8769588a8986667U,
  0x75779768a7598687U, 0x8898698988957a86U, 0x7aaa657998969783U, 0x9679997a8a879858U,
  0x779867865577a478U, 0x5978666767886b69U, 0x988786797947a977U, 0x6678666988967979U,
  0x6c87545876955754U, 0x794887668876b7b7U, 0x6797775718686687U, 0xa897678577875658U,
  0x6775b65988775667U, 0x7688698b87888748U, 0x98678a7698986a76U, 0xc776687688798b69U,
  0x8977675858798888U, 0x8bab68677c869999U, 0x7777877568666769U, 0xa978a468577977a8U,
  0x67a88668b8899a96U, 0xa879889988667a77U, 0x7875886679466868U, 0x777a36687895869aU,
  0x8a88667998766954U, 0x87b6887587775868U, 0x58995979c7559685U, 0x7888989579a68697U,
  0x98859887667a7a83U, 0x9999a9b9a3778727U, 0x599775688766888aU, 0x3785678798888a99U,
  0x897688a856b59677U, 0x6a5a988788769678U, 0x7557778878956788U, 0x99695b6866758896U,
  0x79975878a7869597U, 0xa478987868877177U, 0x9679876987b66869U, 0x8679997765998666U,
  0x9788b67699698873U, 0xa957786687887688U, 0x87767aaa57665985U, 0x2667799768876597U,
  0x8866589778775684U, 0x5686b7856a886839U, 0x87788597a8687567U, 0x77695b6789798677U,
  0x5589492795b78886U, 0x7a6788862b765977U, 0x9a89996978696777U, 0xc675559799887867U,
  0x78675876a6765497U, 0x7698678988895666U, 0x5685779777457889U, 0x668a9996898b8587U,
  0x8a68977988956896U, 0x885778777a76b978U, 0x886997a7d886888bU, 0x2968879696987887U,
  0x689a97787886757cU, 0x686659888989784bU, 0x8797767798987698U, 0x76789b776a667886U,
  0x67869638aa7b7a8aU, 0x799c9668dba55558U, 0xbab87a8879997789U, 0x7968977a676887a6U,
  0x9899779968885787U, 0x5a69788678885a69U, 0xa99a779879896a99U, 0x88727979637d7685U,
  0x9a979866769388b3U, 0xa9568889787788b7U, 0x6768a7a8e6b75977U, 0xa8a7699a69987678U,
  0x8778b99679677687U, 0x959948697b796744U, 0x6877848679888679U, 0xb86a688676697687U,
  0xa686a68789569689U, 0x855a89673a55b798U, 0x5a99797597888789U, 0xb67866a968797886U,
  0x7879869697896365U, 0x7887796687778b76U, 0x7678679679665779U, 0x6687ba586b996667U,
  0x6469b57887797778U, 0x6787878887889997U, 0x68687a58c7a86877U, 0x388799aa88787687U,
  0x778736899875967bU, 0x5666686496879736U, 0x7797799866795587U, 0xa9668a86b5787b56U,
  0xa86788597a5b6a86U, 0x7b6b8897d69aa586U, 0x9a4a979979897877U, 0x57676b9799877777U,
  0x7887788568999a98U, 0x6677677788955b87U, 0x5989889786378787U, 0x8883ca88649b8a66U,
  0x6987a8b6996a7954U, 0x667668668689b997U, 0x7968889698b69975U, 0x9767796588578858U,
  0x8779b99766978769U, 0x5897a69b65887696U, 0x9988679986886677U, 0xc899647757788487U,
  0xa667984798498979U, 0x996c7677c368a557U, 0xa85659a76869677aU, 0xa9996b867a8678a9U,
  0x8848987599868478U, 0xa989867887977d96U, 0x6887879779666988U, 0x7894b67682a46865U,
  0x868855a976958978U, 0xa84688878677a7a8U, 0x7697a96678b9678bU, 0xb6789798877776a8U,
  0x687a98997689978dU, 0xaa7888a79b77665aU, 0x57987598a6786576U, 0x4896b97786889877U,
  0xa69a88c79aa56678U, 0x7963a788a57a9859U, 0x789a7777888a8887U, 0xa96a69a8a6798986U,
  0x69696868a8798868U, 0x7986797797886498U, 0x6a7876a786869967U, 0x8786c4856b7a6987U,
  0x86994b69699c796cU, 0x8778976888776967U, 0x586997a91888a68aU, 0x69786798789689a7U,
  0x9777596799975674U, 0x8687668ba486694aU, 0x9888898689869686U, 0xb8895a795887956aU,
  0xa9867866a8a58987U, 0x8db79799c4787867U, 0xb7b6966497858778U, 0x9786a4866a8a88a7U,
  0x7869a97959876567U, 0x7a768977a8889578U, 0x789879898948a898U, 0x898268b986737588U,
  0x73999487796c7695U, 0xa85778a986864a97U, 0x78967579a7897785U, 0x48978676788b7968U,
  0x6879a6675778567cU, 0x986976639a7688a9U, 0x67887a8777677976U, 0x69895777756a9896U,
  0x3896673746988789U, 0x7e95659756596b77U, 0x9aa7956a977a868bU, 0xa997aa7999688757U,
  0x6697868b87865966U, 0xb797679a7788afa8U, 0x668a79a878d79698U, 0x8776556669938678U,
  0x8786bb5986748957U, 0x8996888679874797U, 0xa7778776489a987bU, 0xc897989887789797U,
  0x6889b789777a6785U, 0x8696b9457c98587aU, 0xa7778b9769887586U, 0x5a87ba8776788476U,
  0x887b8858aba79788U, 0x7455778778685959U, 0x967a899b988b8874U, 0x988a8c99a57788a8U,
  0x6686667876865797U, 0x9876768798688778U, 0x7976698776587897U, 0x797355a786788578U,
  0x8597a54888669756U, 0xa777988777877768U, 0xa887b8a967775888U, 0x368897a566686998U,
  0x8878677675686989U, 0x9986784786877956U, 0x6779786877899a79U, 0x49984a6844686969U,
  0x5686983799688896U, 0x957455994a987a66U, 0x7a686a6976887875U, 0x68958a77a7798759U,
  0x8987769558698996U, 0xa598978888886768U, 0x567a668987b9aa79U, 0x7872bb7795648566U,
  0x8a68959976959847U, 0x5768987879797667U, 0x89a99957b7888876U, 0xc79968a5795a7677U,
  0x877856977898598aU, 0x678859ab6b788538U, 0x6867688978798599U, 0xc596559798756968U,
  0xa575664766847776U, 0x7c969966977587a7U, 0xa9a9786597669875U, 0x86686387757678a7U,
  0x6867978a96998a79U, 0x8567776858766a97U, 0x696a876989966897U, 0x688c35a99b7b9a7aU,
  0x8c665b88988b89a6U, 0x5798987786878898U, 0x89776896c7568985U, 0x98779875688a8867U,
  0x987556878987967aU, 0x57698796777898a7U, 0x5787986686868a78U, 0x57797577ab76969aU,
  0x596a8859a65b7588U, 0x6a58a6788b686897U, 0xa558857a898a788aU, 0x678889798a767887U,
  0x9688987a4666a779U, 0x6968888699896779U, 0x7888776887387968U, 0x9775657973747899U,
  0x7598ba57568c87aaU, 0x9886976669778997U, 0x7987889a4976587aU, 0x2687787a788a8897U,
  0x6867b8897786876cU, 0xa777587598889644U, 0x7897769747768a9aU, 0x8a87479755788a8aU,
  0x4a8547b879847777U, 0x966687795975a596U, 0x8b5a6958a66b788bU, 0xa8768c97758a9896U,
  0x9868a979d968ba77U, 0x756777966788b978U, 0x6686788888b5a676U, 0x769ac67965697796U,
  0x9a688695778a88a9U, 0x96b6776978876878U, 0x96a86779e8a85878U, 0x47777986998b6698U,
  0x978857788986669aU, 0x57997882558776c8U, 0x6668787998968587U, 0xb86854796866778aU,
  0x5585684887498577U, 0x666ba6794566aaa6U, 0x6869987a7777777aU, 0x6868599985877877U,
  0x999966956578b996U, 0x6a89767767976b66U, 0x987978a878975679U, 0x867366779b799776U,
  0x85677879868297a8U, 0x9968987789789867U, 0x98a6b5a758797877U, 0xb8a796a997a69777U,
  0x9778498665766985U, 0xa978c88b657877d5U, 0x69678c7669978986U, 0x7986ad6888868497U,
  0x878a68a76b658678U, 0x967a6789d9885966U, 0x77797985a8687763U, 0x97796a698a777959U,
  0x8887678876984959U, 0x8788a96897878469U, 0x9576899777a97678U, 0x767d89b9895d6677U,
  0x7366ca59877c9695U, 0xa7567898778788a7U, 0x686998899857a87aU, 0xb677985789689667U,
  0x9786c7888678a996U, 0x9799776b96777849U, 0x57978497a6777a89U, 0xc697597857687795U,
  0xca879667675a9877U, 0x72959768a96ab668U, 0x76b8998b97758776U, 0x9675567678897868U,
  0x8759a97889886577U, 0x9a9799696888a477U, 0x6676888687766888U, 0x9878a6676a7a7788U,
  0x85975b47798579b5U, 0x8ab778796788b656U, 0x586956675776787aU, 0xe687699a99589997U,
  0x9888b8998869a879U, 0xaa77699b94888985U, 0x58898a7859878b96U, 0x98795779b5989585U,
  0xa876889896467997U, 0x8594768778668959U, 0x45758794987a8886U, 0x7677846a678789a9U,
  0x9788786a66878498U, 0xa787788978889889U, 0x898967677829a788U, 0x9773aa68a9988865U,
  0x96687699966b76a8U, 0x8757885898763988U, 0x778679a957586574U, 0xb777699996648878U,
  0x977947a68985977bU, 0xa677b768857796a9U, 0x5788768867679786U, 0x969aa676b6888979U,
  0xba79982856a89589U, 0x69865779298776a6U, 0xa6a8668568958776U, 0x7998a36987687796U,
  0x7658a86a67788896U, 0x6a88968867888379U, 0x8775786888b76696U, 0x89872aa995957997U,
  0x77965b66877477abU, 0x59a6776979895679U, 0xa6a85a9a37869688U, 0x9757897987888978U,
  0x8776986776866669U, 0x5889a7767a887946U, 0x77878a7869767a86U, 0x49877699b9667966U,
  0xaa7597d755a89886U, 0x65589667499a4966U, 0x5aa9898987597976U, 0x9a7a8579766898a8U,
  0x766888767876a668U, 0x9587696698797277U, 0x7789886977996689U, 0x9665c89877748565U,
  0x8796a4aa866b896bU, 0x5757697876896859U, 0x566756588858688aU, 0xa978665597998597U,
  0x887756987765588cU, 0xa88856968977558aU, 0x97878b8757976576U, 0x759887768a798978U,
  0x4665773745856696U, 0x98a25a77556aa598U, 0x5a6969576868678cU, 0x5698a68887798748U,
  0x88a89776a678a689U, 0x57868797876a6398U, 0x7767886977795677U, 0x7683a4767c698666U,
  0x84786756698c7796U, 0x975768698776a877U, 0x587868796866768aU, 0x2787886779565787U,
  0x8876c8666689857aU, 0x5999567b77689755U, 0x7868868778688b88U, 0x46767877b5868b99U,
  0x777676a897639988U, 0x8583b988ca798968U, 0x9789757878896687U, 0x9a77559666877688U,
  0x8698b77ad6995876U, 0x9678897688779c89U, 0x9869869787788798U, 0x667388879b8b7699U,
  0x7697b467979987a7U, 0x685898678578b676U, 0xa9a88788d6787886U, 0x9677889769677897U,
  0x777a5767a69ab88bU, 0x857956b583779746U, 0x886985988778979aU, 0xb998a98857878565U,
  0xa98a864797559889U, 0x76a97778557787a6U, 0x5989778a7786988aU, 0x9988578769798768U,
  0x6859869ab6666699U, 0x6a98698888689667U, 0x9778886897899899U, 0x7a73a999ac668a69U,
  0x8568aaa767849996U, 0x968778a989898687U, 0x89a858593859978aU, 0x8898675788776897U,
  0x78696897886aa787U, 0x887559756b77865aU, 0x8887756867779976U, 0x5969ba9865868985U,
  0x5678792797859595U, 0x94749677bb686598U, 0x589879756789888aU, 0xb976997967787668U,
  0x99a8686599879678U, 0x9b86687667976477U, 0x7979776687569787U, 0x8985765697a79876U,
  0x96874a56787c77a5U, 0x7998986867784758U, 0x7876699917897875U, 0xb987784789787688U,
  0x8886766878998a77U, 0xa66856ab7a78997aU, 0x567878796666998aU, 0x88887588b5789578U,
  0xc87696d64a6a7787U, 0x94b29899c8694a58U, 0xb86986948889777cU, 0x8886836987977868U,
  0x9877977887889869U, 0x9868979998876c67U, 0x9996885787c6a987U, 0x787ab5b8788a7698U,
  0x8576a769698588b8U, 0x5a688899787896a8U, 0x56a68697775a6876U, 0x8797768a89699798U,
  0x889ac7679895a97cU, 0x5599979799877637U, 0x7778867687989977U, 0x86985a787986758aU,
  0xb779884897558999U, 0x8149a778a9a9aa76U, 0xa996868688778865U, 0xc6665ba697868878U,
  0x87a9786466956b76U, 0x66676987a79a6869U, 0xa978777687a76786U, 0x9878757968648966U,
  0x956845aa89686769U, 0x67a6689778798778U, 0x5988696627b79986U, 0xa898999885759997U,
  0x889649985887997bU, 0x5966689567887775U, 0x6897786796699677U, 0x3976b567b5968887U,
  0xa987693798a46889U, 0x739b469955865578U, 0x5659977778867789U, 0xa6696a8688778897U,
  0x789859768867b799U, 0x55988786786773a7U, 0x8596879989395a88U, 0x79836ba99c639879U,
  0x637996a698797699U, 0x9977678889777978U, 0x5957599929a85979U, 0xc6a8796666ab8567U,
  0x977958687578877bU, 0x7866b9848b89877aU, 0x7699847768986a86U, 0x5a7a578876757597U,
  0x4689594756567896U, 0x889a6688749a5987U, 0x58a9697a698a8888U, 0x5888ba779a868859U,
  0x78885677b7776666U, 0x9597986677668b68U, 0x8879886888494997U, 0x8987457755858757U,
  0x6a68a89876737759U, 0x6666879688798677U, 0x685878a84859a889U, 0x285875aa876b7868U,
  0x6788b9689489796bU, 0x899a89aa66876848U, 0x8888887768787576U, 0xb4998a7988778967U,
  0x477677b756548978U, 0x779c8988a67a5657U, 0x47699b7a87676775U, 0x89885486796a8758U,
  0x8687868838667996U, 0x867987976879a958U, 0x878a867778a8a978U, 0x788ba7a69a679a75U,
  0x7488497666748888U, 0x68b6998878784858U, 0x58885796a7586776U, 0x9668965696769858U,
  0x7899877776898888U, 0x978897947a775ac8U, 0x98987887a9887575U, 0x7787a88667667a88U,
  0x9678997849678799U, 0x665c857727956569U, 0x889597689885877cU, 0x598a5a9795777977U,
  0x77a8979837868997U, 0x6897879998785596U, 0x7676799979565777U, 0x867a3788976b8b79U,
  0x76764689766a8859U, 0x7867787989788687U, 0x98977767d8b9678bU, 0xa7788994877b6797U,
  0x7868c68798878686U, 0xa875b8887c7797c8U, 0x77888a9877786778U, 0xb686938857688476U,
  0x68865879955b7679U, 0x758a657626975668U, 0x9858799a87a59788U, 0x89889ba79a9977a8U,
  0x8697676aa8665798U, 0x589966787876a678U, 0x6779877787366977U, 0x8a83bba6666a8696U,
  0x8c86aa769978894bU, 0x69687767878768a8U, 0x6778686757a98679U, 0xb567896789558757U,
  0x887878679785988cU, 0x697976888b888665U, 0x67886a6768878867U, 0x857596875a697777U,
  0x777957889ab86a87U, 0x73766a87465a8987U, 0x68997668688a6879U, 0x8868946987778879U,
  0x6878566ab8668667U, 0x78879687a8799a87U, 0x6677876876388998U, 0x8669767679546875U,
  0x6678b986766a8655U, 0x69876757898768b7U, 0x8866698938699977U, 0x7788677a887b7978U,
  0x788949966778666cU, 0x9986987d75785655U, 0x88778a7697686776U, 0x9669a47995667877U,
  0x5787967966476976U, 0x9a6b978768665596U, 0x78a5898a98799878U, 0x56668b586a888788U,
  0x6768598859899c79U, 0xa57799686899a499U, 0x787a769977b85999U, 0x76743a7857798969U,
  0x8a88859867637748U, 0x88b7998669887687U, 0x677978a739668679U, 0x6878699669767858U,
  0x9876869956696589U, 0x7899a8ac7489898aU, 0x8776786976769889U, 0xa89677976a897776U,
  0xa875677784a57678U, 0x7d7ca58776a597a9U, 0x47a6658568978986U, 0x7679646659788877U,
  0x9678776a69797389U, 0x5868858867966c78U, 0x8676889676b69967U, 0x8a86549969967596U,
  0x7c867b76888278a9U, 0x96787786777858a8U, 0x88766686e676967aU, 0x4688975969778977U,
  0x7899b88697979776U, 0x9987869b76886669U, 0x888785a959777867U, 0xc697576957769599U,
  0x777a894798559868U, 0x76a47778b88b4587U, 0x76a8679b6989867bU, 0xb978996769878659U,
  0x67a97977b7997368U, 0x6978999898789187U, 0x9978676687c57788U, 0x798869a7698a6996U,
  0x7677b6aa999c9675U, 0xa8986888758769a8U, 0x8888b589d76a4977U, 0x586769a7779b7877U,
  0x8877c768a888978bU, 0x8689875669976829U, 0x6987888987898586U, 0x6a896c67759a9778U,
  0x87958927886b7698U, 0x736ca886b7788a76U, 0x8bb7699a688a7988U, 0x86789b8979797868U,
  0x9869a7793767b878U, 0x7698888878766876U, 0x9779779888587867U, 0x777b9559866a8787U,
  0x6d87598667898764U, 0x8867977766767748U, 0xa7a7565648966777U, 0xc7a7768669a858a7U,
  0x8787579885795567U, 0xa789b7657a8767bbU, 0x87867888a8776885U, 0x8a8a9a77a7996775U,
  0x6885794767948878U, 0x8ca9aa97296875a7U, 0x66986a668798668cU, 0x687a5a7789868889U,
  0x9857766579895687U, 0x659979999866a577U, 0x7687997787496698U, 0x877cc8a89b966986U,
  0x99887797987c78a4U, 0x78a6678878898767U, 0xa997994a28578987U, 0xc98769aa96a56788U,
  0x778766869886a77bU, 0x667877589488695aU, 0x89888868a9779b7bU, 0x65678377b7777688U,
  0x6686a8d87a597787U, 0x84a3a88844a7759aU, 0x987a87697895988aU, 0x5799955785767886U,
  0x9688a69949778c77U, 0xa878689797778a89U, 0x569968898847a878U, 0x8885299966669a6bU,
  0x95785a58889779a9U, 0x86b7788676895797U, 0x8687a6983856b784U, 0xc778695577799778U,
  0x98876988679a9a82U, 0x596747838a76a876U, 0x698798878999958aU, 0x486747888a779b98U,
  0x8a6a764798497587U, 0x94695a97c69a58aaU, 0x8785996799897786U, 0x99688b68669776a9U,
  0x9757787a58679a96U, 0x5788887868688b67U, 0x6876789876595787U, 0x887da9a98b887895U,
  0x8c77b65568948848U, 0x79a69769897669b8U, 0x69a768596779b986U, 0xb89789a5886976a7U,
  0x886537799676a69bU, 0x579766966b68669aU, 0x58878c9668978596U, 0xa676877955768989U,
  0x5a9996a7799b7986U, 0x87889777677ab855U, 0xa747778a877a9764U, 0xa79979a8a7788896U,
  0x8877979958988986U, 0x9587677677895498U, 0x888a686786996768U, 0x867487988b958779U,
  0x8a98a57866899864U, 0xa867788786786878U, 0x77a86776b8a99685U, 0x7988777669796988U,
  0x8779b86787799996U, 0x5a8659b89578a7a5U, 0x68888b6789779777U, 0x3687488748899a9aU,
  0x4776875866a38999U, 0x797b7a8879694699U, 0xb659976a78768786U, 0x7895bd65a8897757U,
  0x7798489a79789668U, 0xa576677688798b69U, 0x8677868988b95679U, 0x788aba6987677956U,
  0x74668a8a66679677U, 0x8958977789876769U, 0x9888665a6757878aU, 0x3968777778a47897U,
  0x7786b99779787664U, 0x6a75a898899958c8U, 0x8768768777887977U, 0x95677b89a8687887U,
  0x3a7847b858459698U, 0x77666886d5669567U, 0xa79a9a9688979982U, 0x66876877758988a9U,
  0x6857877939785b77U, 0x67787988a8966166U, 0x9677869777499968U, 0x768b87a86a936989U,
  0x9388669698657967U, 0x698878676978a6a7U, 0x7778788617b68585U, 0x47a8778966a5a886U,
  0x9799777866877978U, 0x896887ba8777999aU, 0x598795a756689766U, 0x56974978b8987696U,
  0x7775a85867639777U, 0x769b7a9845755b96U, 0xb976976787699979U, 0x98789a8955868877U,
  0x7858a79b678a9b99U, 0x5a78a8899668ae76U, 0x777a897677677798U, 0x7686775886669599U,
  0x6b878699776599acU, 0xa96998668678b957U, 0x67a899b8d7976986U, 0x4968665578a79988U,
  0x878887a779887778U, 0xaa9768668a778795U, 0x9967957889886687U, 0xca98a87775898a98U,
  0x986a6757765b7589U, 0x7cab8887ca6ba597U, 0xb5858b9567a99796U, 0x86975a776a878857U,
  0x8788887a578a9a56U, 0x8769988998769d89U, 0x868697777656a978U, 0x6a75b8a664859aa6U,
  0x97885798897878b6U, 0x7797879987777597U, 0x88a8a9a68967b97bU, 0xc7589967886aa697U,
  0x9897588969688976U, 0x898989b385786779U, 0x77677497a8789b87U, 0x5995679889887897U,
  0x9986a997758b7998U, 0x89aa8998458995a8U, 0x4977959587957776U, 0x76986366677a8779U,
  0x77786785c9779868U, 0x597887689797aa87U, 0x9777774777b88787U, 0x888539a986757886U,
  0x8669949597676675U, 0x768686977887b877U, 0x587898a8b8477889U, 0xb98869598776a967U,
  0x9866c7868577878aU, 0x599896796977663aU, 0x9767849778687766U, 0x4999848775978498U,
  0x667a8838aa587976U, 0x74787a68475986a6U, 0x39766a6a66968784U, 0x5686768767897798U,
  0x8898997886779898U, 0x6a886887a7979779U, 0x9a89896687568997U, 0x75873767ab767795U,
  0x857864b78866678bU, 0x6aa9879986894669U, 0x6867a7a668a89678U, 0x8787895788856967U,
  0x7786a7869888587cU, 0xa989688586776956U, 0x67789a9877868778U, 0x8877a96655978879U,
  0x89766777a7459679U, 0x76a77a87b9a86997U, 0xb4a7a8956686869bU, 0x8569549858857889U,
  0x89587879aa765479U, 0xa5697898b7686ba6U, 0x5879789978779a88U, 0x8677358689797876U,
  0x968864b9898987abU, 0x9a68868788795747U, 0x679796a777675975U, 0xb77789aa698b8877U,
  0x7767b78769659875U, 0x57668778638759cbU, 0x9777779798877699U, 0xb8756797ba987b99U,
  0xb78758387a4c7776U, 0x6cab7978b5595676U, 0xb698658668899974U, 0x58677b9896987898U,
  0x8977a88879874898U, 0x8589768a688a9a78U, 0x6a79995789b79598U, 0x788c379664898576U,
  0x687848779974a869U, 0x979788896678a677U, 0x789746a857996788U, 0x6797678866649867U,
  0x787aa8687a999793U, 0x77a766766b776986U, 0x58668b96a8979a77U, 0xb89a5498a58a7596U,
  0xc68886c9b78a7a79U, 0x94a99888847b7668U, 0x79998a9767677674U, 0xa8966498657889a8U,
  0x7977977988687698U, 0x66885787976a6a66U, 0x598a886678978989U, 0x986a35789796797aU,
  0x7477468a858968abU, 0x787868668978a988U, 0x98595757a867997aU, 0x6768876a86569897U,
  0x786569768665666aU, 0x4675b7489b7795b7U, 0x6968778796886789U, 0xa997b986a7868886U,
  0x6867685888b88a97U, 0x7ba44778456a5898U, 0xb746669887787779U, 0xa667838878698977U,
  0x89479779b8967557U, 0x5978997787797397U, 0x7988786689969667U, 0x7773869878579a98U,
  0x8b767756798896a6U, 0x8758679776796658U, 0x89a76789d8976688U, 0x7868895a668668a8U,
  0x788798976b7bba85U, 0xa6783882a57778a6U, 0x8767836989777878U, 0x59896677699a8676U,
  0x798aa6a897b87687U, 0x799b9888498b8688U, 0x5779649a989a7875U, 0x4a988689a6968757U,
  0x7958986577999767U, 0x6787888786688898U, 0x5579675876899997U, 0x8665a5a66a7b7569U,
  0x8397765998688668U, 0x55a9888877874768U, 0x676886a9d7b6a785U, 0x79888655778978a7U,
  0x97975968778a6985U, 0x578866537b887969U, 0xa796899788778877U, 0xc76a6687b6968696U,
  0x5978794797b38a87U, 0x8d46a68999995769U, 0x4559959597778878U, 0x49675476658676a6U,
  0x6667686a58997699U, 0x7877978699688f68U, 0x8879995877c68687U, 0x858995997c8a7967U,
  0x69986a77887b789aU, 0xaa677867967687c7U, 0x975656b9a899a77bU, 0x7897676679ab6667U,
  0x8888779875868794U, 0x7599575478787776U, 0x87788a8856698699U, 0xc78a7c684a697586U,
  0xb77a774788ab998aU, 0x66686a8745656787U, 0x6aa8aa9b7999797cU, 0x7a868c76a68788b9U,
  0x97886796b6687a99U, 0x568986788888bc58U, 0x778899a777c75969U, 0x7787a6978caa778aU,
  0x92698757766d6769U, 0x88687877778956a6U, 0x679868a928769686U, 0x9998866667879877U,
  0x8897488796766976U, 0x786759967a8889c8U, 0x7867799786789967U, 0x3678b87848766587U,
  0x8697893668957778U, 0x7a8c9a884b89a669U, 0x5678687879868874U, 0x59685ca977688768U,
  0x79b8688867887688U, 0x77988a77788a8388U, 0x6988989977a8a787U, 0x9989b57894857a98U,
  0x98788479779687b5U, 0x6797877777764759U, 0x78985a97a7487774U, 0x366877996899a967U,
  0x9867b7976687a67bU, 0x7a9a48718577aabbU, 0x9887849998668697U, 0x4669647656887685U,
  0x57855998555b9969U, 0x6b53777938757797U, 0xa6a7988598898899U, 0x59699b667a9887a6U,
  0x9698668668898a85U, 0x8969877758866869U, 0x98897888879a9999U, 0x87794a99a7649588U,
  0x847658a788738696U, 0xa8a8789a7887b777U, 0xb797467859b9b789U, 0x498887aa89667778U,
  0x896657678788aa6aU, 0x7868b8636587a997U, 0x8788849898897a78U, 0x48a7a77666877979U,
  0x9a6968c8a6bc7889U, 0x8b836766d9977558U, 0x977777799696868bU, 0x65896b8798998966U,
  0x8978576687977797U, 0x9968687688885587U, 0xa866878788479a77U, 0x798c45576c7a8796U,
  0x95875ab8696b6946U, 0x9768679689899657U, 0xa87787b738978885U, 0x8767965586676888U,
  0x8786a87887887894U, 0x7999779b6387674aU, 0x68987a9866979865U, 0x68996b6956787b99U,
  0x878967a6676a8889U, 0x795358789898aa69U, 0x5977679a77899685U, 0x77686ba987867895U,
  0x9677977437987a68U, 0x8a78697998757b78U, 0x897886a888497789U, 0x68742a579c858998U,
  0x9b89594a868a89b9U, 0x7786886888799797U, 0x78679998a7a67676U, 0xc797687988a78a77U,
  0x7789486899789974U, 0x96a977aa7b88a875U, 0x57888a8966878798U, 0x7867869996697678U,
  0x999697c896797989U, 0x7588698635996689U, 0xa5a5598688766874U, 0x9886589a677686a8U,
  0x7889978538976388U, 0x7488886968766a76U, 0x7679888678768867U, 0x7775a78975757776U,
  0x7478a6a6677399aaU, 0x95798886897766b8U, 0x967857887778577aU, 0x48887896669a8688U,
  0x7769c68886777589U, 0x7998888b69889925U, 0x8778797666698665U, 0x8569948698888865U,
  0xa97598378a597a87U, 0x747ab7664b596698U, 0x66a9976a68748668U, 0x5875657879886999U,
  0x97989868a7865997U, 0x8888869a67989e78U, 0x968a795889986687U, 0x767b6457765c7598U,
  0x6c774858768b997aU, 0x78a8877977775858U, 0x87a969a77768a879U, 0xd9a7897886a6a777U,
  0x788887977b76a895U, 0x898a698983789848U, 0x6688797857798769U, 0x4799659867788786U,
  0xc69578b8697a7889U, 0x76726589a9686899U, 0x59687a7587757974U, 0x7a697369a6798798U,
  0x78797787a9775688U, 0x8769969676867c69U, 0x9978788879c75876U, 0x888cc6977a659a77U,
  0x6588bb5697887754U, 0x77b878577888b678U, 0x79a7685927a8897aU, 0x79879778865b8867U,
  0x787a597968669864U, 0x958796767a8888d7U, 0x777776566698758aU, 0xc9884a6769768579U,
  0xa96a9839a69a8689U, 0x889b86767a769899U, 0x59a8aa6778898885U, 0x75989c78868797a6U,
  0x8666789636869587U, 0x7687698866888266U, 0x7788778779679578U, 0x797bca696b76857aU,
  0x69774467997b7755U, 0x56a8686876778767U, 0x6877a85847877775U, 0xc868876796558967U,
  0x8869c77666796985U, 0x569757598576668bU, 0x7987698878977967U, 0x68898466c8899879U,
  0xb68666478a8a8778U, 0x89945698648a8597U, 0x48a7ab996885767aU, 0x4788a26679689658U,
  0x9658567589775778U, 0x5a87868977777988U, 0x9797895688a68977U, 0x777268a7647a7985U,
  0x8678b59577758686U, 0x897867759978c6c9U, 0x58a7885977568677U, 0xa9787796775b7968U,
  0x876ab79779987973U, 0x6588867a6b78889aU, 0x78878b6898986475U, 0x3986688748859988U,
  0x597557285a657875U, 0x8a449677a79a7987U, 0x4a99788688986975U, 0x47a8426677877878U,
  0x87a79789b966a496U, 0x7669689797785388U, 0x6878766689a96698U, 0x768d5ba687787899U,
  0x8c97ba5768939864U, 0x8877896688787867U, 0x69a8a898e857878aU, 0xb8887988895b8777U,
  0x979ac8967a999694U, 0x689869b674788757U, 0x97889a7998878879U, 0x489b946947898778U,
  0x86978777aa658989U, 0x9888857886869977U, 0x5777879b787a9874U, 0xa8865b77a9667786U,
  0x66a7877799674597U, 0x7987878888868468U, 0xa677887777c65688U, 0x858c6457658c797aU,
  0x9288868998877787U, 0xa98977967589b667U, 0x78a77697d7677986U, 0x699869a998558a68U,
  0x777947778a9a597aU, 0x7687387376888735U, 0x677878986687949aU, 0x7a76a78748768687U,
  0x858699578aa98989U, 0x7aab7778488ba558U, 0x98588898777a798aU, 0xa7786496888a7686U,
  0x77a86966a789a578U, 0x7a76978697877157U, 0x7696888787a69986U, 0x8789385667699867U,
  0x76875b7676656858U, 0x9687786879856987U, 0x89889aa6a7a76677U, 0x3788896578897977U,
  0x687558a87575598cU, 0x7889965c94787794U, 0x5887977956889a77U, 0xc6958c87a5658799U,
  0x798a786796448876U, 0x8c6469985677a967U, 0x4999897789769987U, 0x8a97646768887859U,
  0x79a7986636879898U, 0x56677967b7789a87U, 0x9686998688978867U, 0x798868789b937979U,
  0x98964948877a687aU, 0x9aa9668989868758U, 0xa797878618976684U, 0x56877779699a9987U,
  0x887786a766978896U, 0xa69788b593788727U, 0x5978779767777779U, 0x7a778579689a8797U,
  0x5598676697748697U, 0x7c9a667785698b97U, 0xb8b8956597768778U, 0x9777967678768966U,
  0x665898884789ab89U, 0x6a99999878799999U, 0xa787999889a99778U, 0x9a825baa746a9a88U,
  0x64685b7886676964U, 0x86a6675a99898848U, 0x686946993777587aU, 0x4767897977557a77U,
  0x9789b99879888977U, 0x6a98578a9677a69aU, 0x9768847888677b89U, 0x7768aa76a46a7487U,
  0x768899c888656687U, 0x667b667758664967U, 0x6a997874787a8877U, 0x988865887a668796U,
  0x78a7669756885658U, 0x8697789757696c97U, 0x7988787788a67698U, 0x6a66b97983837567U,
  0x8a766ab67988686bU, 0x5986687776875988U, 0x98a799a757977778U, 0xb877898a775a7667U,
  0x878989867a889773U, 0x5766697457776738U, 0x6768656768976799U, 0x599774768a787775U,
  0xa97568788aba7877U, 0x9c44a777586a5787U, 0x99b8679a77979787U, 0xa696969588768867U,
  0x88a89775a9857499U, 0x6977889697996a77U, 0x979a875988587688U, 0x9798549956967888U,
  0x7a8858776a677899U, 0x59577766658648b7U, 0x86879797a8675686U, 0x5867786976978667U,
  0x877986987886958aU, 0x9879675a95877754U, 0x7877839977789487U, 0x766a746968668898U,
  0x798488a888647788U, 0x7b9ca66885986688U, 0xb6b8988699657779U, 0xb8879799969878a9U,
  0x7957999878988aa7U, 0xaa87686777766766U, 0x697779a87669aa89U, 0x6877c77674858586U,
  0x996796867696a78bU, 0x797698598877a8a8U, 0x58a978aa8887687aU, 0x3a98766868667987U,
  0x776959686975a87cU, 0x466868a3647769d7U, 0x87878878a8789a87U, 0x8996ac787a758677U,
  0x777758888b997696U, 0x68ab967937746796U, 0x68b7998787887773U, 0x78797b8779768758U,
  0x88988986a879a886U, 0x9867897757796387U, 0x8587787779b68788U, 0x8672b698a3aa7876U,
  0x85789aa676639775U, 0x5647886589894798U, 0x7857768638779979U, 0x2877789768687877U,
  0x688969788869857aU, 0x9677b86478887956U, 0x7886687987696576U, 0xa96a547757887576U,
  0x7765693864639a95U, 0x859788999b6a6778U, 0x4b86687966778687U, 0x6656659955678656U,
  0x7757999668868999U, 0x8767869697897678U, 0xa969876886679978U, 0x8882b8a872a98997U,
  0x747799a98996785aU, 0x5968889678799868U, 0x87787788b7a7797aU, 0x778786a876a5a998U,
  0x978758977a68a963U, 0x8676a9827977692aU, 0x8898779798989697U, 0x38896c8869887696U,
  0xb88b89b7a6796688U, 0x687a878875a78aa8U, 0x9888778a898b8884U, 0x76799656a77879a5U,
  0x67788879b8778889U, 0xa5669799a7866c56U, 0x897768a987465a76U, 0x87898a8999869768U,
  0x878897b9767b875bU, 0x665877957778b877U, 0x5978676a77596a76U, 0xb76879b98ab79697U,
  0x6898787795875979U, 0x6787b76367878835U, 0xa8776c9877797689U, 0x8876ad9778757598U,
  0x7987587696936679U, 0x83a56a78c5955aa7U, 0x4969888b67889777U, 0xa7759689a68979b8U,
  0x9858778558777596U, 0x5a6779788776a798U, 0x4676865786567987U, 0x6a79756863558896U,
  0x7288a8a976797758U, 0x8658779677786558U, 0x8957598988994884U, 0x9878788a68648667U,
  0x7767686668898963U, 0x6878a7778b687939U, 0x9798858788866576U, 0x9686467899987668U,
  0x6667673895b37878U, 0x6c799977b6559599U, 0x4965898757897776U, 0x9787656779768886U,
  0xbfd8c130beab9eb2U, 0xc00581e03f009c27U, 0xc00b8cafbf37280aU, 0xbfcc42523f287d40U,
  0x3fab88dcbf93aa2eU, 0x3edaf706bf928957U, 0x3f4122743f9d699cU, 0x3f9d61c93feebbe2U,
  0xc0362ea8bdd1d6fbU, 0xbebff4f6bec3dbd2U, 0xbfe40719bf730c84U, 0xbf416acd3ff8392fU,
  0xbebe42283ccad4daU, 0x40594d0fbd94c414U, 0x4023e7d3c0232b73U, 0xbfa3e45540165657U,
  0xc000f9dac0101292U, 0x406f567a4031b72fU, 0xbfc70dac3ee3c1c0U, 0x3f4909643fcbf660U,
  0xbfd5d581be328fd8U, 0xbfb76d33bfb3be61U, 0x401fcb8b3f2aae06U, 0xbf5a94a43cbfa50fU,
  0xbefe4681bedad199U, 0xbfb954213fb95403U, 0x3ee1121d4076f18bU, 0xbe7c33773ee6f261U,
  0x3fc46913bfaf75aaU, 0xc0097e6a3f1dc30aU, 0xbf94abecbfb6e7f8U, 0x3f911067bfd7c5b2U,
  0xbde2e44940112cd0U, 0x3d1df7a3bf3dc616U, 0xbebe982fbf941114U, 0x3e11183bbfe0bfabU,
  0x4040c5883f1bfa37U, 0xbf944ba83fd0bd0cU, 0x3de994fbbd402380U, 0x3ea1a632c02ff4aeU,
  0x400aeda5bfbba4feU, 0x3eac2a613fb05c7eU, 0x4047ee8a3fab93c0U, 0xbaac01f03f4e68cdU,
  0x3f4169dac0220678U, 0xbfc0e5a6beeac3a7U, 0xbea1fadebed54db9U, 0xbda51c413f4013a7U,
  0xc00f3f79bf94e8c3U, 0xbf2722613ffa99fbU, 0xbf8e3557bed93119U, 0xbee5f4843ff06a57U,
  0xbfb448053fb26b5eU, 0xbf857084be8db2bfU, 0xbd9bf92cbf501043U, 0x402f22bfbf5d8503U,
  0xbe026329bf570fdfU, 0x3ff6e3084065350fU, 0xbf285f1fc007d643U, 0xbef3fcfc3f0f8a49U,
  0x401ebd02bedcfa34U, 0x3dd472d3bf2f3fa0U, 0xc0404d92402558d8U, 0x4073924cbf829af1U,
  0xbe74f60bbe92a385U, 0xbe2d2803be4ef671U, 0xbdd39605be0bf768U, 0xbcf83cdcbd8b6d02U,
  0x3d4107bc3c12eef1U, 0x3dea7fc03da901a7U, 0x3e36ab723e15ef8fU, 0x3e84f7143e59d4deU,
  0xb69683c98a4c9b7cU, 0x7b875549b6778a65U, 0xa4b654757cca7386U, 0xeb4a957878c3c99aU,
  0x26b43b6c93aa78a4U, 0x776567ab88b86986U, 0x76b85a8899547459U, 0x8be67898678a9e88U,
  0xbb877cc42bad5a58U, 0xa7cbcb48dca66859U, 0x99c876b5c7493b3aU, 0xa8c58b6779869746U,
  0x6a8867ad9874bb87U, 0xbb9b76468a4694cdU, 0x9b99b7b2c8c67968U, 0xc8b5ad663899485aU,
  0xbb854dc57a327b81U, 0x59497660ea66776aU, 0x8584a7856b65cb87U, 0x59bc869bd64bda76U,
  0x74566b88446499a4U, 0x8652945eb4d68994U, 0xa86877e29458cb74U, 0x767a78a5c7569373U,
  0x69ab48b985716b77U, 0xa986ad892636797bU, 0x8cdb6c69686526c5U, 0x89c7b535d58d8668U,
  0x65a5c75a9645989bU, 0xaa3566c7949ab59aU, 0xb9989b178472b934U, 0x49c96a7a7c786e37U,
  0x6679c743f7b1588aU, 0x8aa499a6a7869a79U, 0x63d4ba66c896365bU, 0xa88a29b9755b5979U,
  0x6c9d2579a5768356U, 0xa957b658b89ab957U, 0xb57b696474bb9878U, 0x632d8875a68781aaU,
  0x8ab6a6497764a9a9U, 0x694b775898358776U, 0xbd56688766a747b7U, 0x975b897998cbe568U,
  0xc886e48a5d4a7498U, 0x635674476864a939U, 0x998688a3c7c3baa9U, 0xb684a68479b7c779U,
  0x8ba49b42db766b7aU, 0xb69996ad665886b7U, 0x59b3adadaa47e637U, 0xa95c55a6da782b50U,
  0x89984895a8c36966U, 0x95ad54b54a445bc3U, 0xc69779a965c967a6U, 0x99ac5aa9ea855969U,
  0xd9666b9868277a52U, 0x6588587db5588568U, 0x64d99c85b5857b75U, 0x69772a6775759ab3U,
  0x4c7889695765b877U, 0x864c452a85a55a9bU, 0x389d98d37598649aU, 0x6d3767a66856547bU,
  0x775b5789876669b2U, 0xa965479dc458a8a9U, 0xbbd4bc799574b24cU, 0xc487dc9454693888U,
  0xd7b73b93cc9c9598U, 0x3c4db8b8a358465aU, 0xe48688447ca966b7U, 0x78bd9585dc98785aU,
  0x2bcd7a9b23dd75a4U, 0xa98786759bc77a78U, 0x337e95dd3b9699b9U, 0x5c7975378968a5daU,
  0x639459bca8996b88U, 0x878e766c8c789a84U, 0x747875486bbaa778U, 0x65cc59bb37b363d5U,
  0xba5d784b77a56a9eU, 0x9838b9c944c97667U, 0xb76854aacaaa4969U, 0x48b7ab8553b88895U,
  0x9c98779a5865946aU, 0x5966a5c6a54b7676U, 0xa98a49d14b9755b6U, 0x7aa6b9a5c8a45649U,
  0x85ec3b992cdd9979U, 0x9acbdca247c8b888U, 0xc63859cb5a654745U, 0x3ddb955c5a8374a3U,
  0x3aa68698b86b9969U, 0x7794ba96a7669685U, 0x648569e457a876abU, 0x97ba9bac67735ba5U,
  0x46ad7b39197ca675U, 0x7866994119cb57b8U, 0xb79aa8589a648547U, 0x97a9d7585968b65bU,
  0xc3aa6cb76a595d7bU, 0x45827556a9a5b9b9U, 0xdba576ad5b387886U, 0x3a2c8a7ab8483c73U,
  0x454c7989b4a1876dU, 0xa7db64855999474bU, 0xa649676b6b9c5a7cU, 0x4c875bb59ca7876cU,
  0x7953548862b7ab67U, 0xc96c94c3a4ccac4cU, 0xcb7c5aa6a78aa866U, 0x9cd7464949ebbc85U,
  0xdb75cdd4ec8a7876U, 0x897668a3b8b4a676U, 0x69a782c366bc7585U, 0xabca47499a46b78cU,
  0x83752499a6babb63U, 0xb6c67737c99a795bU, 0x6675b56a688c6586U, 0x667b8c8996e7a54dU,
  0x2446b86476aa7862U, 0x78b65747d888a67bU, 0x95d95aa38944a6c7U, 0xba5c66d89642865eU,
  0x768a69779867cb68U, 0x7a7866bc4d9594b5U, 0x3b78a9cbc8b47655U, 0x57e79a78a8598c35U,
  0x89a66ba86b536763U, 0xb9474995d7b85944U, 0x5acb5aa48b679c43U, 0x45b567767cabc89cU,
  0x26889a9a57b3a696U, 0xa6c39716739975bbU, 0x98885879a9bb9ba9U, 0x57c17b8a27328886U,
  0x8a4dc7497c8a685eU, 0x875b46566a4a659aU, 0x77dd8cd79a9827caU, 0x4b76aac97974a4c9U,
  0x886a9aacc675ac79U, 0x57688c28b6bb7736U, 0xc97a6988577c76c6U, 0xaa7668abd787a748U,
  0x2bcc66bd179ca777U, 0x66b7654c846ac8c5U, 0xc35596999bd985a8U, 0x36d5868b585d9c67U,
  0x5d7b35aa676a576aU, 0xaca7cc187a6b95b6U, 0x897766625bc39786U, 0x753974ac287c886bU,
  0x7767cc555b7f8a56U, 0xa9898733646665a6U, 0x37853a68388bb867U, 0xa54a36c9a98cb985U,
  0x9682866b49384d7aU, 0x74cd548c7c4a6b64U, 0xa4a45ac5bb5587caU, 0x79e66985c33c3e89U,
  0x85ba5797dc3e9a58U, 0x59b6855788c7577aU, 0x58b455cc649b48b8U, 0x39933a5a597b89b7U,
  0x645db475bb795587U, 0x4c5cac86953964c8U, 0x446ba85c7ac47888U, 0x73685c691b8b7897U,
  0x7cb696695c33adc6U, 0x488876894697a856U, 0x37549aa77854bb86U, 0x459a5b87c753ba96U,
  0xb9537385a695cb59U, 0x379a69a45ba58998U, 0x4987c83b47457498U, 0xd754a4a6c97b3177U,
  0x85c99e48895aa46cU, 0x59a7aa74ca8b979aU, 0xc6ac74c485598b85U, 0xc998a7b83db86657U,
  0x58764c74b9339b8aU, 0xa498a91c4995a736U, 0x6878baaaa548b586U, 0xad65978976c5bac8U,
  0x55de64a8eacb755dU, 0x8b8869a06b4a9794U, 0x9ce7796ac8aa478cU, 0x3977763564a53868U,
  0x86be39a567c54579U, 0x289a7c7749367a4aU, 0x9666ab7545545a55U, 0xb8c49458d86b575cU,
  0x8584695c2894ba74U, 0x56d55318dbda5a56U, 0x6a8a7c6879475437U, 0xc3aaf5a54863c777U,
  0xc3975769748c7d59U, 0x9b7d98c36a787974U, 0xb69876eb5a78ba87U, 0xc68a53a99ae978a6U,
  0xb88bbb62e965a4b5U, 0x68a5b8c9298587b5U, 0xb742cbba6a6bc376U, 0x8897c4b449459752U,
  0xa79c36a77ec657acU, 0x4a68791da8b89783U, 0xc695599257567a78U, 0xa86268598a86b1c7U,
  0x9c958d39ca348566U, 0x964847bf44586695U, 0x6ae36a978795439bU, 0x5a24cb569893488dU,
  0x6a64eb54945b446cU, 0x3794852649d84569U, 0x99788a249b2bcab5U, 0xc8f99e8599ba57c6U,
  0x6ac6695eb9bd955cU, 0x456475a839988585U, 0xabbbc9636779c85aU, 0x9ceb4796a75ba677U,
  0x9767c4a57cbaa86bU, 0x4bbaacc44e655948U, 0x4b885628897859aaU, 0x89568948a6a44a66U,
  0xda9356375b936634U, 0x85584cb267758a87U, 0xcaaea87356a79c49U, 0xc7a469a8d89898a8U,
  0x678667594a68b68cU, 0xa65c7645ca389956U, 0x566b9893bb947789U, 0xada7a5c9976cbe35U,
  0x168a9149c5444bbbU, 0xbaa974d068ba8ba4U, 0x594ac676997bca9bU, 0xb7ca64749ab43657U,
  0x356a67957498b86bU, 0xb7836ba57695a685U, 0xc46b6b44b65b5b97U, 0x97aa8a64ac8bcb86U,
  0x85869846bd6d8babU, 0x9bb9698747c48755U, 0xb8dd6d3c8a794976U, 0x7a984599db655676U,
  0x5698684abb75c958U, 0x955686a4ab5595a6U, 0x5b94892689747685U, 0xc34ca55969b52254U,
  0x8886a7a385c85587U, 0x7b9ac5e55ab798a4U, 0x65d99c7ac7b74996U, 0x73255a87a4ab967aU,
  0x575b3874b58b4b96U, 0x8a9a76a2ae73ab47U, 0x8499a8c9a55a7a79U, 0x3965a5b787555896U,
  0x8545bb868da1bb6eU, 0xa46a8a4c695684b9U, 0x5cca487885a585d6U, 0x75375ab4a4668988U,
  0xc9abcbbbad45c3b9U, 0x663a96c847688987U, 0xbb6aa547868577baU, 0x4aaabc87a5887d68U,
  0x74a49a65987c7989U, 0x853945c8885c5484U, 0x9be995a9aabacc89U, 0xa8853777559b98d7U,
  0x76b3987d6b5b5a57U, 0x7aacb5548a64b559U, 0x5aa59b3775878554U, 0x4c8579d77a35858bU,
  0xcaa4ac89d432a83aU, 0x99b59883b4866996U, 0xdb2f864ca668c46bU, 0x4628564756b87580U,
  0x436646997c5557b5U, 0xa8788825ac69a7a9U, 0x7b6675a3b8a88958U, 0x58e45b94db84d458U,
  0x6a964c7cc665a793U, 0xa76a9bc0d8c9a894U, 0x76b4637978a35b4bU, 0xa44865857b6779b1U,
  0x5c78648b7d46547cU, 0xca8a7cc79589998aU, 0x5a8b783683858658U, 0x5854a66799327664U,
  0xd5dd758a6d72787eU, 0xc65575bc75a94a94U, 0x6ac89496b6669865U, 0xda38959b47cb7a92U,
  0x5b96cc957a69b5b5U, 0xd9537b8c97657669U, 0x85546968598a77aaU, 0x8a367d7724743778U,
  0x47a4be47583f6789U, 0x55b78c5f8cba8779U, 0x73b3c94a6449a486U, 0x985b799b488bc756U,
  0xcc835668aae55b99U, 0x67a3763a697968cbU, 0x956675ba77577966U, 0xbb4aac86b57b6454U,
  0x4bd574d8bc8ecc7bU, 0x6b48647793579598U, 0xa7a649b5abab69a8U, 0x78a55ba6375c5848U,
  0x6b63aaa47d8e6988U, 0x98c76586b9868856U, 0x6763bab56945c878U, 0x8766ac9559db6a88U,
  0x9597d2c5e9bbb866U, 0xb686c47cab47958bU, 0x9c6abb5455b89bb9U, 0x9ab976c3577abbb5U,
  0xaba72968b4ab7ca5U, 0x3b4975dc7d6ab6b7U, 0x886b59ac66c7bb95U, 0x93be9b76d9736686U,
  0xc94d87a6e9407ab5U, 0xc7596963babc77c3U, 0x57ac9b5c7b886eacU, 0xbb4b4a797a578547U,
  0x6c89c9b4ba384b97U, 0x9a5b9524987ba849U, 0x6b85a786674ea579U, 0x4b6bc456c78d7e69U,
  0x49b8868bf5307792U, 0x4595957d6c366479U, 0x35d565738b598797U, 0x5966347575739bb5U,
  0x8b943cb65aa8b756U, 0x5578b7bd79c89796U, 0x4b95967398a488b7U, 0x5777b9ade9a7ba55U,
  0xda5bc3ba6a6993a8U, 0x68a8952d38467857U, 0x49ca58a48b67d946U, 0x4963868695bc974aU,
  0x9a675675a84b5575U, 0x766998359bcb5587U, 0x6a89b6736768a536U, 0x399a92656a7c5789U,
  0x4694479663c8b949U, 0x86579a92c8494a85U, 0x3b43a54a886b9885U, 0xb4c87ba5b64bcbbcU,
  0xcc9795796b5a5a5aU, 0x5646738b3546a9b5U, 0x6774587c5ba57884U, 0x938482868b7cb487U,
  0x375d5749ada3974dU, 0x577bb9cd97b57845U, 0xb93e895987787a3aU, 0x4753855646a3d86eU,
  0x585bc4c7b8ba74a5U, 0x3a739356c863c74bU, 0x7b8b67baa87887baU, 0x58728cacc793c3c5U,
  0x8859756a9b429978U, 0xaa49889a32c64a94U, 0xc5bdb46b4aaacb74U, 0xba65c7568a997769U,
  0x2ba7656857cb5877U, 0x3556a646859b4699U, 0x7c7a4548d5557a89U, 0x669c857746bb8db8U,
  0xd73ebb9ccbd8a88aU, 0x675ba5789b87596bU, 0x59c79ac846ab794cU, 0xc55595a7399b87cfU,
  0x9c6b58639369676aU, 0x5596cbaa8d4998a5U, 0xc899776b7c9bc885U, 0x9b49956538a8a997U,
  0x484555b78db69ca8U, 0x89c7a96577898abbU, 0x872488cd796b97acU, 0xc975cacb49974b84U,
  0x57be9c87a8859576U, 0x86977a9845695738U, 0x4679853d789759a7U, 0x97dc6887888a827bU,
  0xab467db2d74f87bcU, 0x95d46b2c5b89859aU, 0x66b5a78b759978abU, 0x5759c8a6adb845afU,
  0xa58ba9ab72497b87U, 0xb66b5af59ab89459U, 0x675b678d548bba96U, 0xa7bdad6b37a86676U,
  0xd8cb787575f87c6dU, 0x467898c6896999a6U, 0xc46b6cb93b9563bcU, 0xb956da94675977b4U,
  0x798a86577359ab8aU, 0xa64d86b4a583a454U, 0x739659576d9c967aU, 0x498d6ba86adec695U,
  0x689439889c8a66c8U, 0x46b98cc4879a8848U, 0x25ab74b22464c8a7U, 0x4976d658489cb665U,
  0x6859b547586956a9U, 0xbc9c93c8676c46c5U, 0x7998c5499bca45b5U, 0xa5db7c9437888467U,
  0xab3782aa52528a74U, 0x7666682ea99694b4U, 0x89d97a6a554429a7U, 0x933936c679779579U,
  0xda536b588ca86955U, 0xc5896957a994b853U, 0x467786d4a95c7979U, 0x8aaa6c9857d99da8U,
  0x8a55b63477788458U, 0xab6b92893c8b5879U, 0x4d687b57ab745596U, 0x33a5d874995cb995U,
  0xd3b44d94b7569879U, 0x5a42a7e394539546U, 0x3b89572c8a77368bU, 0xa26477b328c685a6U,
  0xb659a83d36875557U, 0x7578c927786aa578U, 0x3b66ada8d9993a97U, 0x4857b46a4aab4b4bU,
  0xac9cdc64837cbb95U, 0xb79194a7c8a65628U, 0x4986663a76bd7a47U, 0x9b47a3bb76c73f57U,
  0x753968bc6a5e65b4U, 0x678acb3794667a5dU, 0x96b29543c559b799U, 0x8b28d9abaab56998U,
  0x7aa7c35544bc8b45U, 0x2b396ad4b88aaa83U, 0x2976695b66769656U, 0x4995b2668a79a4abU,
  0x2a625cac45b947adU, 0xab786474b6a9686bU, 0xab56888b4aac88d8U, 0x9c49389577897984U,
  0x7c46865aabe6789aU, 0x77b9a6a347899576U, 0x28977aaa95937c76U, 0xb5c6bc779a747d98U,
  0x4c396c7ae4b2558cU, 0x38a9a4aa7ab75558U, 0x5ba27a4777842758U, 0x96bb76d7c595598eU,
  0xc6896c99b96886a8U, 0x8897649555a95994U, 0x9588972a7877aa5aU, 0x75468b95d9ed4846U,
  0x39ac94767bbb5b75U, 0x68934a68b4c5875aU, 0xa887865c59758256U, 0xb5d47a47959a845dU,
  0xcd588b846395c659U, 0x857479a6bb959786U, 0xba6865dd84d5877bU, 0x6ab7a9aa879841a8U,
  0xea2b9c6528b3996cU, 0x9975b9b338556688U, 0x88d99c4d8b5b9a94U, 0xa8b385a54b867cacU,
  0xba767b4695aabaa3U, 0x76cea6b44d36577bU, 0xc98797a6b9a758a7U, 0x678d97b6e899a9a9U,
  0x8c588bb731c6a5b6U, 0xb798993483c85767U, 0x7853bba559899d83U, 0x578a3968b5635772U,
  0x6877d787698b9cb5U, 0x7688735c556ca79aU, 0x4b9579a49a45b968U, 0x8ce38a779694c976U,
  0xc861a64eea7786b6U, 0x39968c5259b85577U, 0x4786a6b5c8a82985U, 0xa8652966a9a75637U,
  0xb4b8d4ca59564d6bU, 0xc8635c345cdc9469U, 0x979b898e5497c6b8U, 0xc7d7b95ba88dba5bU,
  0x78975883f9626b45U, 0xb995aaa847645a74U, 0x58ab8462d5a773b6U, 0x5997874939cac5b7U,
  0x74849a565bca96a9U, 0x4b9da4759a77b6abU, 0x956957b948c28975U, 0x96ba9cabc5368739U,
  0x9967666646a97bb6U, 0xa878bbcf6896a8c8U, 0x9374a58b7c5b25ccU, 0x5976577496754ba7U,
  0xc4992c845da5b885U, 0x75948589a588b655U, 0xa46baa3399866b79U, 0x96899e887ce27658U,
  0x27c3c679e99b6a56U, 0x9b766753795787bcU, 0x79dd88b68697d5a6U, 0xa88b2948a3478875U,
  0x8768474a9b845867U, 0x97c69b797c469668U, 0x557858c76a96ababU, 0x9a2d974c194ad288U,
  0xbfd2d93a3cbc5670U, 0x3e79859d3fa20925U, 0x3e198c703f2ee41aU, 0x3ff4a559bee3518bU,
  0xbedbfc6fbec11e5fU, 0xbf1a1eb23e66042dU, 0xbf4dcdb83ee77a69U, 0x3ea0f261be5a5ed1U,
  0xbf9c0c9a3f0fbdb1U, 0x3f57a2103d537cf4U, 0x3f7f591d3ee17a3cU, 0x3f5b944dbf21bacdU,
  0x3f2918e73e351674U, 0xbe9796bb3f593404U, 0x3d962932bd2a21b2U, 0x3edb2fe73f1d190cU,
  0x3edbeba7bedfdf70U, 0x3f90bec23f9b6527U, 0xbd147de63f36b2acU, 0xbff1ce84be5dababU,
  0x3fbebb51bf8758e7U, 0x3fa53d363fb6cc66U, 0x3f223dc13eae3bfaU, 0xbf444ab7bfcd0777U,
  0xbe940149bfc08f4eU, 0x3f8b7a653f16632fU, 0x3ce227d23ffc1ea4U, 0xbf1bb7013f0d9d56U,
  0x3f2748e13e6f406aU, 0x3f2ed34cbfa08fcfU, 0x3f0201a9bf0669ecU, 0x3e0f33ff3e03bc84U,
  0xbdbc9b71ba87e1dfU, 0xbe2294afbdd208a2U, 0x3a8251d63a12703dU, 0xbe380ba8bdfd7d88U,
  0xbde24c2dbd895c98U, 0xbdb8e9eebe4ab782U, 0x3d3c4c543e53744aU, 0x3dd14b70be1fc86aU,
  0xbdc20aa1bda2ede9U, 0x3debc2c4bd94a28eU, 0x3d92804bbbe7755dU, 0xbb14da513d7efa73U,
  0xbe419a893e0b0295U, 0x3de97c3aba645caeU, 0xbe7155433dcf796cU, 0x3e1f5d933e056c30U,
  0x3e31d6c03e204132U, 0xbe88b21dbe277429U, 0xbdb9fe223c446486U, 0xbd8206bdbae6528aU,
  0x3d677ff43dfb19beU, 0x3d75419e3e4550bcU, 0xbe2273b23e1d509bU, 0xbe047d623e450f9aU,
  0x3dc360df3e3eba80U, 0x3d80bc3cbe644fb5U, 0x3e3778523e478a9aU, 0xbdc22dba3d2543b6U,
  0xbd3fc1903e6a0e8dU, 0x3e2715493e5f81a6U, 0xb9827c833e4346fbU, 0xbdad4c12bdf351ccU,
  0x3ddf7b6a3e829284U, 0xbd88c42a3d10dbb5U, 0x3df1e4f6bd8fac7bU, 0x3e095a91bb29bc47U,
  0xbcd982b3be302f2dU, 0x3e15b99abdc66d13U, 0x3cbaca6e3db47091U, 0x3d007967bde12802U,
  0xbe4048493df6c84fU, 0xbdf112e43d8d001bU, 0xbd5ae49fbe703066U, 0x3d60cda43e2c0b96U,
  0x3cdc9aa3be45d871U, 0xbdeed3c4bd94f167U, 0xbdc5ab2b3e8b1d33U, 0xbd695d06bd27f417U,
  0x3eac6a413c78fa20U, 0x3e4c1be03e75c09dU, 0xbdba68783dcb7ae3U, 0xbe001e23be364a0dU,
  0x3cca15c03d3cb077U, 0xbd4e32053e1081f6U, 0x3e2976513e67a674U, 0xbe015ea8bd2c2b58U,
  0xbe24bdd5bc246b4fU, 0xbddc3e933c5ead4bU, 0x3d5aa821be4fdf1fU, 0xbe8ec46cbdcb5826U,
  0xbe57ca77be20f8a9U, 0x3e8da877be8c5252U, 0x3e2990b4bd477d4cU, 0xbe106edebddd1f34U,
  0x3c521fc8bc80a3fcU, 0x3cb74f7f3cef2d4cU, 0xbe1b9ee23e711d2eU, 0x3e700ecf3c244ff9U,
  0x3d9813d73d84672bU, 0xbdf9316d3ce36a51U, 0xbe07969fbd7ead5cU, 0x3e258baabdf1193bU,
  0xbe4dd75ebe082f39U, 0xbeacd8cebdfd935fU, 0x3e719f6b3e6fdcdaU, 0x3bc01dcbbe1d92f3U,
  0x3c9e16f7bda898e8U, 0x3e4c00f7be72f354U, 0xbd89ef5c3d157072U, 0x3b40e85c3e57eb63U,
  0x3e201b663dccc148U, 0x3db1763dbd5cba5bU, 0xbbcca314bd4ba9d2U, 0xbce2ac983de96aa5U,
  0x3e64f6293d46280eU, 0x3df06cc3bdcc06e8U, 0xbe20fcf8bbeddfdaU, 0x3d29c5e9bdf1aaa1U,
  0x3cf74c843dd4b2cfU, 0xbd8f5ee83d8e4922U, 0xbde4f453bcf26e04U, 0xbd40865e3d0912cfU,
  0x3bce529a3e3f6195U, 0xbd44aa85be23bc31U, 0x3e71d657bdf9f68eU, 0x3ce4dbe13ca47a8cU,
  0xbe2d658c3e7bd2b2U, 0xbe82402dbe2d8eb2U, 0xbe20a9b43e73b2aeU, 0xbe20c895bca45f88U,
  0x3db264083e0a7782U, 0x3c58530e3de55f07U, 0xbdaa3e133e3f39cbU, 0xbe60d31bbd8b7eeaU,
  0xbe5238b7bdc2fdc4U, 0xbe231fec3e2d155eU, 0xbc43a0773e5fa4b2U, 0x3d6931b33dc0153aU,
  0x3df7abaabe22b6a4U, 0xbe124d96bd55a9ffU, 0xbc4654c5bd8476c5U, 0x3e361b13be4b714aU,
  0x3e6604ba3bf447d5U, 0xbbb7e47f3e3fb8b9U, 0xbe53d6c43d94a0c1U, 0xbc91a4dc3e10b2d6U,
  0xbe8d4f4e3e36cd4cU, 0xbd14e0b43d60c47dU, 0x3ced96643dd3dc01U, 0x3e0aae513db903ccU,
  0x3e05b74cbd12d46fU, 0xbe0133afbe3382f2U, 0xbcd772603cc2ea53U, 0xbe40c96abe4703d5U,
  0x3e0f7d9e3e001a1bU, 0x3e14a92cbd41f877U, 0xbe87a031be84d9ccU, 0x3e12a968bbec3dc7U,
  0x3e3c74d23e9228a2U, 0xbe86b681be2148d9U, 0xbe5142ca3d5049b6U, 0x3bfdeb62bdca272aU,
  0xbe0c42fabd923027U, 0xbe06dc96be5c54e1U, 0x3e53f5fdbe16a760U, 0xbd861a413e171633U,
  0xbeae08f1bdab3ab6U, 0xbe148a813ca98eb7U, 0x3e2f8e213e6a7340U, 0xbe515d213e65f45fU,
  0xbd72c9c2bdb9ecefU, 0xbe4f23123c016894U, 0xbe662b5d3b6d919aU, 0xbd651cde3e7518ceU,
  0xbd2474cdbd11c99bU, 0xbe485fd33d9e4682U, 0x3de83c1c3e571efaU, 0xbe119578bdf63844U,
  0xbe4781e7bd7f159fU, 0xbde0274abe4f7097U, 0x3d329f6dbdfe4d5dU, 0x3e25e50fbddcc8faU,
  0xbdd513783e433335U, 0xbe3221643e011584U, 0xbe2be2643d172e01U, 0x3e21ca9dbe26d604U,
  0x3d9aa70e3de01920U, 0x3de1f4993de486a9U, 0x3d925fd6be1b2220U, 0xbe42f9b43d9ee15bU,
  0x3f570a7dbf169477U, 0x3e69a5dfbf1f90efU, 0x3f96d5b8U,
};


ai_handle g_failure_prediction_weights_table[1 + 2] = {
  AI_HANDLE_PTR(AI_MAGIC_MARKER),
  AI_HANDLE_PTR(s_failure_prediction_weights_array_u64),
  AI_HANDLE_PTR(AI_MAGIC_MARKER),
};

