/**
  ******************************************************************************
  * @file    failure_prediction_data_params.c
  * @author  AST Embedded Analytics Research Platform
  * @date    2026-03-13T10:39:15+0100
  * @brief   AI Tool Automatic Code Generator for Embedded NN computing
  ******************************************************************************
  * Copyright (c) 2026 STMicroelectronics.
  * All rights reserved.
  *
  * This software is licensed under terms that can be found in the LICENSE file
  * in the root directory of this software component.
  * If no LICENSE file comes with this software, it is provided AS-IS.
  ******************************************************************************
  */

#include "failure_prediction_data_params.h"


/**  Activations Section  ****************************************************/
ai_handle g_failure_prediction_activations_table[1 + 2] = {
  AI_HANDLE_PTR(AI_MAGIC_MARKER),
  AI_HANDLE_PTR(NULL),
  AI_HANDLE_PTR(AI_MAGIC_MARKER),
};




/**  Weights Section  ********************************************************/
AI_ALIGNED(32)
const ai_u64 s_failure_prediction_weights_array_u64[3067] = {
  0xbe1fce6dbe3d2fb0U, 0xbde70234be0a88a2U, 0xbd8011d7bdb97f61U, 0xbc1c4bb5bd12d0b9U,
  0x3d1d3be53c8b2333U, 0x3db0366a3d7d7908U, 0x3e079b793de4a105U, 0x3e39acb53e1ddf22U,
  0x6854509866a0d43bU, 0xc130b2d320317340U, 0x8016c230bec4b0cdU, 0x79fa7093b8e0a184U,
  0xd750bc5980165b50U, 0x20b17cd084a7304aU, 0x5a97e0a99ac098b3U, 0x4950e477503ec3b0U,
  0x60bca570593530baU, 0x66a2c07694b0c5aaU, 0x38d0669520753530U, 0x70745550583b5033U,
  0xb4b620968c507b34U, 0xc8f07a4d30134ed0U, 0xd0e85a30d8d7e0b9U, 0xc56460ba2c508cfbU,
  0x59503291b0bb3d70U, 0x90895a90663b60a8U, 0x775f5035c7104766U, 0x93c00799601b5b50U,
  0x8087cdc0c3ad40b8U, 0x495c40332c806aceU, 0x78400bac80960980U, 0xb0d667d0e86a80b4U,
  0x5838f04577406ccaU, 0x69c09e4ac0a5d550U, 0x6067e350a67dc005U, 0x997ca0c79970242cU,
  0x65406b98f0a9c360U, 0x706671d02a5640b9U, 0xb2d320b63b708519U, 0xcb904cb74096aab0U,
  0x60cc8d5034d59085U, 0xbb68a04668b09869U, 0x98c0da787026b590U, 0xa0a6bb7025c3b0beU,
  0x7b6830ce3c203c42U, 0x2a607e8570893220U, 0x7052c2e0885a1066U, 0x839840975c40d222U,
  0xa760e3a3609383c0U, 0x90592d705b8870deU, 0xde96a04ed5504ba5U, 0x6d90cceb70464550U,
  0x3072e920983360a8U, 0x557d40bc1bf03387U, 0xe4407928503946a0U, 0x407bbb809dc7208aU,
  0x8b69603a8a8054abU, 0x4ba032a5303db870U, 0x501314c04278e046U, 0xd6d4609a96c097fbU,
  0xb6a04bd4c03597c0U, 0xb0a82b30c7328067U, 0xa7a4d0dcaad0bbb3U, 0x5c20298370663e40U,
  0xe0794c7046a6d042U, 0xcc685072c860a2b6U, 0x2c6074755076cd70U, 0x103b4380ce85302bU,
  0xd47e50c5a6605a0cU, 0xba20337a7037a340U, 0x80759b20592c9003U, 0x9c1d403a41808196U,
  0xb410478ca0a844a0U, 0x80ed67603b79f066U, 0xb836803a86905486U, 0x137069bdd0b67de0U,
  0xc087b7304b77507dU, 0xba7580985f602779U, 0x5b208435907225a0U, 0xa0ae8990545480bcU,
  0x48b5d03e77908ae3U, 0x463052541032b960U, 0x90066930d6c43053U, 0x6227506746504484U,
  0x5570468c8014c830U, 0x40227bd0a3a7c076U, 0xe5c980eaadb02e83U, 0x5980bb5a60aa97b0U,
  0x40769c505bd2e066U, 0xe573302187804944U, 0xdb40ab92504822a0U, 0x8016ea60c565c05bU,
  0xb464d0954a308c8aU, 0x59908b3b70cdc290U, 0xd03b43a0c3a6a062U, 0x2c66b08968802699U,
  0x2340478440d8b490U, 0x50ccb2d0726ad0c3U, 0x5cc470e54a902984U, 0x7e30de77808bc460U,
  0xb01dc9c0b32d30b7U, 0x7769c0b2ed506536U, 0xd4b01ab3a0bc8be0U, 0xc0edbda013546066U,
  0xbd1f6af53cc41ed1U, 0x3c109f41bd1d39feU, 0xbd319b42bc1f6b2cU, 0xbd16829dbd2327f6U,
  0xbc460d3abce4cf3eU, 0xbce3cc22bcc18294U, 0xbd227db4bceeeefdU, 0x3c81847bbd7173e4U,
  0xbccca7b5bd8d6fbdU, 0xbcf37b9dbc8ed593U, 0xbc481be83cd8c8a6U, 0xbd542e193a639deaU,
  0xbce7f721bcf9da95U, 0x3c4c2d523c6323b6U, 0xbd0dc019bdacbc2aU, 0xbc39c009bbe6ab48U,
  0xbb28a69dbd15bb82U, 0x3c2acf06bc5b8a24U, 0xbbd4b8ed3c3f05e7U, 0xbc68d240bc605e6cU,
  0xb8fd1243bc5832e8U, 0xbbb06962bc1ac43dU, 0x3bbfb071bbba54e1U, 0xbc91fd93bcaba6e4U,
  0xbd217488bce8277aU, 0x3d1b695dbcc62ff6U, 0xbb164574bcf9f845U, 0x3c8fdffc3c743ec7U,
  0xbc2d88cfba772b17U, 0x3c1b69693bcad794U, 0x3bf166d9bd5df6e6U, 0x3c074262bd1c57c2U,
  0xbd97bcd4bd250b78U, 0xbce30dbdb94efbd8U, 0xbd86210dbc10a8feU, 0xbd53e6573cfe9a3aU,
  0xbd52f12a3d26c869U, 0xbc0ca0563969c230U, 0x39d248113d8599d3U, 0x3c85439e3c8c4c9bU,
  0xbcc410563ccb9373U, 0xbc32329ebcb6fc45U, 0xbb76bbacbbd92944U, 0xbcfb53e7bc381e95U,
  0xbd17cf75bdaa282dU, 0xbdda7705bd1a6562U, 0xbc4d9711bcb7f4f0U, 0x3ce4fd8dbd4b6498U,
  0xbc15e0413a5e7307U, 0x3d43282dbc4a4269U, 0x3d196223bc47244cU, 0xbce45f23bdfe9719U,
  0xbc67d1d1bc00eabaU, 0x3b3c56fdbc2ba88aU, 0xbb0278c53c47fce0U, 0xbce79d3fbcf38158U,
  0xbd3f1863bce1b647U, 0x3c26cc54bd430591U, 0xbc3da9213c57e326U, 0xbc585875bc84ee8bU,
  0xbcaa267fbd13229bU, 0x3bf07938bc83e2e2U, 0xbcb71039bb9f745cU, 0x3b7e28d9bd813930U,
  0xbd3be808bc7d0a0bU, 0xbd7b5886bcb869e5U, 0xbdb947acbcbf2d43U, 0xbd19445bbded97a1U,
  0xbd00333bbcc93d6fU, 0xbdabd229bbe17489U, 0xbd8842fcbd219502U, 0x3c6542a63bb6ca75U,
  0x3d16c2fcbcf6eda8U, 0x3bdd804fbd22d224U, 0xbddc00dfbbd5e4f3U, 0xbd6dce1ebd46269eU,
  0xbc630d563bcc8415U, 0x3bea6c99bdb91914U, 0xbb86e55ebd0a1574U, 0x3c100152bd88ad7eU,
  0xbc0851dabcad06a2U, 0xbcb25aaf3aeeb301U, 0x3d3fe2d8bafdb7feU, 0x3c69ba0c3c789fdbU,
  0x3b63f7a33bfc9a20U, 0xbceb4dbfbc008770U, 0xbdd78ef0bd15dcbdU, 0xbd5a6901bc938f4fU,
  0xbd3757b93c590a56U, 0xbcc16d173c658b87U, 0x3c9b1457ba1e2e47U, 0xbc088b3dbc54d9b4U,
  0x3bfd38c53ce58bdbU, 0xbd9772b9bcbcd128U, 0xbcc8bbb3bcd370b8U, 0xbd05c5103c54ac29U,
  0x3c42b305ba90d9e8U, 0x3a9cbd623b2efb3cU, 0xbd10c1d8bc538bc5U, 0xbd4ecf4ebd5e9251U,
  0x3cb3cc59bc7a74a4U, 0xbd5c40acbc0c4e81U, 0xbd543db8bbb4a3a9U, 0x3cb5ce943af64e34U,
  0xbd3bb6c23ccbd22cU, 0xbd0e59ccbb3d977cU, 0xbda2ade7bca0dc0bU, 0xbc8bc4ad3cbd3cc1U,
  0xbb8c71223cac080eU, 0xbba70665bcc50259U, 0xbd1336903c51a44fU, 0xbdb4be693b954163U,
  0xbd7e143fbd28e7f5U, 0xbd9f2f61bc88dd3aU, 0xbbec4237bd4afc87U, 0x3be2b57ebc247ec7U,
  0x3ac2a9a0bd89e4e9U, 0xbd42fc29bc2ae2f8U, 0x3cf61df13d07fe9aU, 0xbb031ccdbd9722d2U,
  0x3c1e17133caa61d7U, 0xbd817227bd65052fU, 0xbc7f8cdabca114afU, 0xbc1e7623bcb92a80U,
  0xbc9bd7823ca8b553U, 0x3d070c84be271195U, 0xbc312af3bd887c24U, 0x3ced81a93c55d88eU,
  0xc0889fc3c0a927bdU, 0xc02a313fc0558afaU, 0xbfb7e620c0019617U, 0xbedc545abf67e7a6U,
  0x3ede4363ba5d3da2U, 0x3fb463303f653711U, 0x402789973ffe9db9U, 0x408733554057cc99U,
  0xa7a7a4896a886b99U, 0x557b667687866958U, 0x46a6859797788978U, 0x87766698967a86b8U,
  0x8a88774785695786U, 0x97986938679999a9U, 0x9587887a84889886U, 0x699777a797879976U,
  0x976d979c47a558a6U, 0x596a5788d8966667U, 0x8676769957488578U, 0x9888976579889775U,
  0x979a86bb786c7699U, 0x8778779997668897U, 0x589777b497858897U, 0x989c679998796967U,
  0x878794779589bb85U, 0x695ea68a988898a6U, 0x56b58a8578679c88U, 0x78865a9578785859U,
  0x7a79998795778786U, 0xc77a75539688795aU, 0x557978899d76878aU, 0x998aa98896898799U,
  0x896c899568756796U, 0x88a88686e797aa78U, 0x87967a79aab686a9U, 0x97998799787787d6U,
  0x8b85b8cc9bc56699U, 0x98a9999989558b77U, 0x568879478998797aU, 0x99778aa997a79b77U,
  0x77588b7898998b97U, 0x677999879b877978U, 0x6a679a9887789999U, 0x9979887b8786b966U,
  0x858667487b669788U, 0x6897ae96c6997668U, 0xa58a978a64656878U, 0x97b8766879699779U,
  0x787a958998475968U, 0x7779a798677aa9b7U, 0x77aa9789685a8768U, 0x7997a7b776a77678U,
  0x7858979b849668a9U, 0x8699886b98697b89U, 0x89a8996788688b6aU, 0x989b6a7888a99768U,
  0x786789777887b58bU, 0x698c7696aa989796U, 0x68a6979a78898569U, 0x7899a68c8779b9abU,
  0x7aa66a987b86689aU, 0xc989bc5cc87888a9U, 0xa878797757976775U, 0x686a97a8999788a8U,
  0x867a787866ba996bU, 0x67a8987888879578U, 0x76856677664a7688U, 0x788859c6a8a79898U,
  0x75a7bb9a7d6b7799U, 0x9b69799ba7987777U, 0x777897898858966aU, 0x987d87a799997a78U,
  0x69677b785b9a9896U, 0xaa9a678767966798U, 0x8576887878677978U, 0x7897997d78895a9bU,
  0x858776989a666679U, 0xa8995cbc99698a99U, 0x9b78888a4d769779U, 0x987977967a8a7767U,
  0x98987a9a569669a7U, 0x779769989976a467U, 0x87876997aa699577U, 0x788a798797a787a9U,
  0x8c788a667957b778U, 0x8889997788788587U, 0x87889868877688a6U, 0x77a568979898a678U,
  0x6749a789658abb86U, 0x8976ba8686957796U, 0x88a7799878899477U, 0x886788748976c698U,
  0x8986a9777a866768U, 0x5876b995679a8877U, 0x5b89698984945796U, 0x89a9a66596876997U,
  0x897b848767a66886U, 0x98788796868b9899U, 0x9985a8999b899a57U, 0x98a598a78b787759U,
  0x8bba6ac97baa7a68U, 0x8667889899588889U, 0x5769779a88977a89U, 0x9875b85898889998U,
  0x67497979ad767875U, 0x87a5859984998999U, 0xcc4785897879757aU, 0x77a7a88289a94895U,
  0x9a877a477c796978U, 0x8979be7b56779968U, 0x8b7978866b776788U, 0x887a979989777aa9U,
  0x987b8a7c5a6999a9U, 0xb8984788f89585a8U, 0x967a9a7797ba9997U, 0x7795885766979948U,
  0x898757ab996a7aa8U, 0x8998878898998987U, 0x6a78886788b88676U, 0x899d98879896a798U,
  0x98696a796b779a8aU, 0x886c898a85876777U, 0xa5a77a87888798a8U, 0x8777677888979884U,
  0x8697ca5996979968U, 0x6967a56659888879U, 0xa58687858995a875U, 0x99a6a87779979a67U,
  0x769a88aaa6889768U, 0x98686a9a7877ac97U, 0x9859688866a79bb8U, 0x57a9a5588aa87949U,
  0x76a679c89c9b7868U, 0x7869876696b57b79U, 0x9958897677758676U, 0x788ab78979888797U,
  0x889894878a865b9aU, 0x766aa9859b858857U, 0x2a78957677989877U, 0x98797a7386965887U,
  0x7a7679498676b767U, 0x8798a8a6b7978a57U, 0x577878896d965a76U, 0x87a7989989766697U,
  0x9998848357765999U, 0xa986778986678b87U, 0x96a5877786988769U, 0x579868a89989874aU,
  0x9a798555936658a8U, 0x88a9899996a99988U, 0x5888684989ba7888U, 0xa87849a978a87678U,
  0x888988877b7a7a97U, 0x7a8a87989c799968U, 0x94c7859989799a77U, 0x77978984799a78a7U,
  0x78aa87b77b7a6886U, 0xa7896a286a879976U, 0x869867976b7b8987U, 0x9868777a8996ba78U,
  0x999a8a96b95679a9U, 0x978a5a7756857877U, 0xa887766778979977U, 0x979688aa77a897a9U,
  0x77aa679577a57967U, 0x8698889479877b77U, 0x98788966875a8678U, 0x977c9a6779999779U,
  0x97787a899b96a59bU, 0x8695aa87767977b6U, 0x84da767678779787U, 0x99977886876a5799U,
  0x7999799898855796U, 0x5a7689b468887768U, 0x787977866b96a776U, 0x68787869778a8887U,
  0x779a858ab86a97b6U, 0x57687a77e9778779U, 0x77876768a7998a97U, 0x86779a95a5779839U,
  0x65b9b949798599a7U, 0x99a988869a758698U, 0x86b97994897787a6U, 0x898879a877786688U,
  0x6868847895788995U, 0x684966868b7668a7U, 0xcb66799588789967U, 0x89978799878ac767U,
  0x88a7c758989a5778U, 0x889b614997968977U, 0x66776986bd967897U, 0x77a6786578886969U,
  0x76787a933858b7b8U, 0xa848678918867c79U, 0x8668a888aa788577U, 0x699ba86969989956U,
  0x749aa75985a67678U, 0x7668888c79a88977U, 0x8758895887689478U, 0x7777798878789878U,
  0x8879988766869985U, 0x87535a87768a97a9U, 0xb46a877798968a67U, 0x8877957c8959a885U,
  0x888ab9b77a75aa96U, 0x3967563b56999988U, 0x688677877d9598aaU, 0x6886997b69878988U,
  0x996288854878777aU, 0x5869668827756a87U, 0x78a589789a578679U, 0x7785888696788899U,
  0x7b975a66968bab99U, 0x7a8788a899758898U, 0xa7a7794989559568U, 0xa89c785878799568U,
  0x87a8aa888a877588U, 0x6a94b68a8999a9a6U, 0xa67a878889799877U, 0x7779799589788789U,
  0x977aa999847aa996U, 0x78a7a366a76686a7U, 0xab8a9786b5978979U, 0x77696868a7757a98U,
  0x869c898d79a869b9U, 0x97a8d6981a665579U, 0x996a8a69759686a9U, 0x987b974695797986U,
  0x8a5878ac768a56a9U, 0x79778aa8a7ba8a99U, 0xa78976b998679966U, 0x79758758897899a8U,
  0x988a867674978888U, 0x995aab888a8898aaU, 0x4d669b8887878798U, 0x7988777d79797875U,
  0x8a9a97786584c887U, 0x7879997589878998U, 0x868a98867b89b798U, 0x788947586777ba97U,
  0x99868a88788ab9a7U, 0xa867678857977567U, 0x7999a687995985b9U, 0x5866a776897778c7U,
  0x888a985a75baa8a8U, 0x9687877d77b57a88U, 0x5968787a88a898b9U, 0x988589a888a67aa8U,
  0xa8b987886a799884U, 0x4bbb5a988b886779U, 0xc488979777889687U, 0x9878a99989767aabU,
  0x89776858aa79577bU, 0xba865f4dc77888a7U, 0x869a798a54987888U, 0x8757ba7a77969979U,
  0x87989c8b79b97999U, 0x7869aa86d9957898U, 0x798b9688a88a7799U, 0x8987aa7997a98789U,
  0x96aa9b877a56b697U, 0x897887959aa58888U, 0x6ab98986885b98a6U, 0x779c687898788868U,
  0xa7b88687999a9794U, 0x8abb9a878a879878U, 0xa458799879978788U, 0x8788a8758a97c9a7U,
  0x79778a7a867a6987U, 0x58789c7cc999978aU, 0x679a8986b5699898U, 0x88696797989696a8U,
  0x7a98977d95c7a999U, 0x6857a78ab6a785a9U, 0x777799776b877948U, 0xa8a679778a777879U,
  0x95865658755b86b8U, 0x8b88786c86687887U, 0xa98898a877787c67U, 0x5799ca8788a97769U,
  0x8859a5786a99647aU, 0x4ac36a887798a779U, 0xaa959a7a79987a77U, 0x8979978499978999U,
  0x9976672977a89699U, 0x6a879cc888787698U, 0x9b869999cc869899U, 0x76a88877787a67a9U,
  0x89878b7389a999a7U, 0x9969488a77867b87U, 0xaa6ca98889c98598U, 0x695999ba799899a8U,
  0x886ba954965478a9U, 0x8887996985678678U, 0xa799778a97997887U, 0x789b978889678b78U,
  0x99c987998597a476U, 0x57a7569b9a799999U, 0x3d99789887988476U, 0x9799669a777979a5U,
  0x99689a47788658a8U, 0x8799bca577977878U, 0xb98779979b667997U, 0x979a5899a7787779U,
  0x89778a7b866867b6U, 0x788aa88a2885a6a9U, 0x8aaba77997678588U, 0xa969a8b7aa7a7797U,
  0x96776b7a99b6a879U, 0x98a999958a867788U, 0x7898797978797a89U, 0x9895d7689879a999U,
  0x87988a8899787978U, 0xa947a988767a8959U, 0x4b5b7a7998887a7aU, 0x9889778388884997U,
  0x76895a888999a988U, 0x4869bc6c67867898U, 0xa789798a5365779aU, 0xba88a798997666a7U,
  0x967d948d37767a78U, 0x77a9577946878d87U, 0xa979aa9978889768U, 0x97898ab6aa777767U,
  0x7b889b45776b8b98U, 0x98a7887a7a958b99U, 0x8ab887b998877597U, 0x697897c87888a8a8U,
  0x97887879a6976b87U, 0xaaac868a7676877aU, 0xd965899887887799U, 0x8997988c77776a85U,
  0x86896868868a899aU, 0xb7979d78879a787aU, 0xb8897985b9688786U, 0x787aa99a79877899U,
  0x7a9b9b8566bb7769U, 0xa7896787e7aa9b69U, 0x98a6868767b89568U, 0x7a67896976779937U,
  0x8bb67a798c66a897U, 0x89a7878798677697U, 0x78a7897588769a8aU, 0x5899885888697a79U,
  0x88788c798997aa9aU, 0xca6389777a978797U, 0x9b9579787a988a99U, 0x8998989378895789U,
  0x878768a887aa568bU, 0x89a8b69d7aa97699U, 0xb98879888979a876U, 0x9889698998869b88U,
  0x77ab868538b9b879U, 0xb869999957aa6988U, 0x97aaaa9a79999a98U, 0x6a7a96497a89798aU,
  0x9477a8a799a46aa8U, 0x8a87778596ba9589U, 0x7889a8a788b77966U, 0x789aa96788a98888U,
  0x78a79b89a9797a9aU, 0x456a778798888988U, 0xa34a859688978769U, 0x9897699c98a878bbU,
  0x96775879877859abU, 0x79987fb99a9a7969U, 0x887898989696a887U, 0x9968a8a78787a589U,
  0x787e8ba5c87999a8U, 0xa9578a7ab8897387U, 0xa798587886788479U, 0x98759896979777b8U,
  0x8569ac977689a9a8U, 0x9767997586777877U, 0x9a99879779677ba7U, 0xa87656a787877999U,
  0x8866988968799689U, 0x58667a867977895aU, 0xb5a9997897997566U, 0x787957748979b69aU,
  0x7aa696b89b989767U, 0xc8aa8354c7998768U, 0xb899799a64777689U, 0x67a6777aa78a8686U,
  0x9796849468b65869U, 0xb859779b6778aa98U, 0x6779aa97aa689678U, 0x97baa88b87898758U,
  0x7679b5679c9776a8U, 0x8878989599568877U, 0xb7b989b897979789U, 0x78754679979a77a9U,
  0x7888969965996a7aU, 0x6a67588885899977U, 0x78899a7699987779U, 0x9987ba748778596aU,
  0x7579c967877848a8U, 0x6999b64759978989U, 0x6899867a548a6778U, 0x7889668688898668U,
  0x9998759baaa89859U, 0x88c99998599a7899U, 0xa797977888a88b88U, 0xaa997aaa6a898939U,
  0x9499a46586b76769U, 0x96697897899b8a99U, 0x6a88995888878bb7U, 0x9767986898688687U,
  0x6797768887798695U, 0x8a587996a6999959U, 0xcb979b9a97977479U, 0x888999968879c958U,
  0x757a77a79a787699U, 0x497963cbaa867867U, 0x7b876896b78a977aU, 0x9a9879676a9a8679U,
  0x887884844a7a8979U, 0xa998a99788656b69U, 0x967aa6668b787ba8U, 0x769777c896678856U,
  0x8baa5a59896c7b87U, 0x8669877978499588U, 0x6578779a775978a9U, 0x87947968798a8789U,
  0xa8776789a8989985U, 0x56cd59777699977aU, 0x5a68888798a98b76U, 0x9889a99997a68867U,
  0x877988998669c997U, 0x49669b79a86977a8U, 0x758689877687a978U, 0x876769a9689a7697U,
  0x797c9974ebe6a996U, 0x48784879368a6d97U, 0x698b88a968b87758U, 0xa78689868868887aU,
  0x978a586a84647b88U, 0x998988796ba97a98U, 0x88889897797c88a9U, 0x787a969878898568U,
  0x68a685889b9aaa76U, 0xca46b68689997798U, 0x79c796987779847aU, 0x98798a8988669757U,
  0x9989b9999889698aU, 0xd7966c6348878879U, 0x9b86999746a9a98aU, 0x98a77866a8797998U,
  0x99a77b74998897b5U, 0xb898b89829a7ab88U, 0x87676979676978a8U, 0xb966a94a799978caU,
  0x78668a8b876759a8U, 0x7779888775bb8588U, 0x6758889598897989U, 0x96774677877788a7U,
  0x87776b998579b79cU, 0x89777a76697a6759U, 0x3967887778797388U, 0x99768879788b8875U,
  0x95896aa994885868U, 0x4aa9b04689699889U, 0x8b8a7996648b7889U, 0x7a969a77878ba99aU,
  0x766b8474b75998b6U, 0x9767b89a697698aaU, 0x898ab8798a8994b7U, 0x576769a797989899U,
  0x946a69cb96ba9869U, 0x766888998ac88988U, 0x58a789c588a78879U, 0x68aa777879877788U,
  0x7977697995789789U, 0x58a45b8897977966U, 0x87b9868998888589U, 0x7788589d998999a6U,
  0x988ab7c8849ab786U, 0x57669da4969997a8U, 0x8786a78a9d88a776U, 0x67a79779a975ab88U,
  0x789778875b899886U, 0xa7586896379a66a6U, 0x7799777a758778a7U, 0xb966a7a7767979c6U,
  0x8aaaa56a7679aaa8U, 0x98887885864a8699U, 0xa8a8984b88a88586U, 0xa897577988aaa698U,
  0x88677698a9798586U, 0x97385b7b9b776757U, 0x76c9958778998ca8U, 0x9897779586aa59b8U,
  0x79abb6687587a877U, 0x877a8c94a9888998U, 0x9a899799788b9978U, 0x99bab87aa99b9877U,
  0x799c949537c79759U, 0x77a99a893886a778U, 0x6878986768588898U, 0x67977a8769a89866U,
  0x98aa7a6b78b67898U, 0x769979979ba99977U, 0x96899996886b8689U, 0x898847a787a989a7U,
  0x67677b78ac787b77U, 0x58c67976878677a9U, 0xb489868588a7877aU, 0x787866958787a879U,
  0x79a78897699ba878U, 0x69769a9d788a9a88U, 0x7987a87889768999U, 0x587687848a849688U,
  0x86678979daaa5888U, 0x998977772a8865a9U, 0x87a76698aa4889a7U, 0xb6755aa688789868U,
  0x8a89bcdb76588788U, 0x7687889a68478687U, 0xa988877979987aa7U, 0x7898566899879898U,
  0xa9a87589897bb677U, 0x6a6558869b989859U, 0x56867b8978877ba7U, 0x89897a9787877899U,
  0x9697a7688c9867aaU, 0x67aa78b657798767U, 0x978aa796a66aa99aU, 0xaab98a966989a889U,
  0x997c85abc9975a5aU, 0x7759c877996a6698U, 0x6796a687a6979697U, 0x775669ab97697968U,
  0x997775498775b658U, 0x769887ac69588a88U, 0x977989a8775798b8U, 0x989569b979797a78U,
  0x7869877a7a897797U, 0x66b5478a99877999U, 0xabbb7a8a97798599U, 0x787969759a86797bU,
  0x77785ba7769b7a79U, 0x8aaa967898899a77U, 0x6877978adb8b878bU, 0xa668b9a979a66689U,
  0x877b867359a8b7b7U, 0xb8685976d8997b7aU, 0x7979796888767b87U, 0x8a66a8aa8b89988aU,
  0x8a99b6878aa687b9U, 0x7687889b65998a97U, 0xa759985b97678997U, 0xa98c8a9898899678U,
  0xa8b77897ab887698U, 0x879dc78a967897aaU, 0x5cc7968a77889879U, 0x978768888a98799aU,
  0x876989c8968b6798U, 0xa8897336a57a89a6U, 0x5686798aa9668686U, 0x876a769a87996868U,
  0x98757c7cb79b7985U, 0x4857c9987a6795a7U, 0x99887898aa787858U, 0x77668ba688888879U,
  0x867a69769757ba98U, 0x9868878d8b788587U, 0xb88888cb879b776aU, 0x78aca66987a897a8U,
  0x788966987c79b48bU, 0x5a53657b97767a67U, 0xca69869798987987U, 0x87989798869a5776U,
  0x878789397698a886U, 0xb88895ad88979968U, 0x7687668692968976U, 0xaa69666788867aa7U,
  0x978c898a6acbb968U, 0x7958999bf775aa79U, 0x9786788878b78898U, 0x69a9a8b87a779968U,
  0x787796b89a69a9a9U, 0x7a788777779b7987U, 0x9669779988789758U, 0x78856669896a7ba8U,
  0x88b898878b88798bU, 0x7686ba99788999a9U, 0xebbb7889899796a8U, 0x9898ab789798d99bU,
  0x9997667885778967U, 0x79989d8caa767887U, 0x54999797538a6687U, 0x86678976867a9867U,
  0x998b9775a5b96988U, 0x8996888a499c7868U, 0x7997989aab8a8898U, 0x9675978777897748U,
  0x7768aa4c78a556a7U, 0x9797987468668a77U, 0xa779777688689a67U, 0x7899b9a889777997U,
  0xa7b77697888a5a87U, 0x7bb3689b7676a979U, 0xa66a8a8999978a67U, 0x8879688a76a69856U,
  0x79776ab79a8a8987U, 0xb89a53d997a68aa8U, 0x58888888bc8a7877U, 0x8a9887a89987a999U,
  0x99a58aa9db9a7868U, 0x79988787b77a6799U, 0x898a86998a699899U, 0x8999a75997689859U,
  0x8a7969da7b9a5a87U, 0x7679899b8a7b8a87U, 0xb878774a87a88657U, 0x7795d96987776777U,
  0x888aa986a887648bU, 0x674b697985899767U, 0xb96a889889889479U, 0x9978889b9787ba65U,
  0x8989999996957797U, 0x59a8c26658978679U, 0x8697667a64a87889U, 0x8867aa6b797a8a99U,
  0x97747a9c8987a968U, 0xb9b8c88646897588U, 0xaa7a9679b6788777U, 0x695b698775787a4aU,
  0x7978977a9b776ab7U, 0x78a8879b887a7689U, 0xa7b8776a97787caaU, 0x7997979778898777U,
  0x68c77a7896876885U, 0xc689c7777b9a7777U, 0x78998698999896a8U, 0x9897a984886988bbU,
  0x787998688b89b995U, 0xa996b36879878aaaU, 0x788898994c96a89aU, 0x6aaaa88799988677U,
  0x8a98797538c7a75aU, 0xa787c7888a669378U, 0xa98688797a668ba9U, 0x999ba8a7998887c8U,
  0x747aa8498bb95969U, 0x89a7877588b88a87U, 0x8998899798668769U, 0x696598a787a98898U,
  0x788868887c7a7689U, 0x67d5aa879b8889a9U, 0xdc97797887789a98U, 0x887a7a8c9996879bU,
  0x876977898896a889U, 0x4786cbcb877a7689U, 0x8587998b94698998U, 0x689a6a97788a8878U,
  0x788d8569469aa868U, 0x88677896d87a6978U, 0xa76a7aa978a88998U, 0xa987a8986a8979daU,
  0x8a87653a8b9a6978U, 0x99a77895a66a9599U, 0x98a798ca8776997aU, 0x9796a687898a7a77U,
  0x99a89486897a6a97U, 0x9a9ab8879c899799U, 0x7a7b888687779986U, 0x8787aa978697a98cU,
  0x976759b87d896897U, 0xc8a7acaa678997b7U, 0x69968a96978ba796U, 0x8a6859856895b798U,
  0x87999797784aa857U, 0x88a85789f67867a8U, 0x6a9b7978aa778569U, 0x899987a67977785aU,
  0x7b5899b4769bbaa8U, 0x996987798a787789U, 0xbba877b5887c9957U, 0x79a77a8898a99798U,
  0x77878c7777785a8cU, 0xa54b8a86689989a9U, 0x88b99b968889796aU, 0x7799969c8aa8a888U,
  0x978866a775965799U, 0x9a96b359778798a6U, 0x66877887548c9987U, 0x7959787767856677U,
  0x87889b86269aaa58U, 0x8987479797785867U, 0x66a69a9885ba8aa7U, 0x589868a868977749U,
  0x8b88854b85896a69U, 0x8688998889b97688U, 0x776988ba875495a6U, 0x98845a9778777979U,
  0x8997948999799b8cU, 0xb7646679a888a989U, 0x9a668a77997987a8U, 0x7789688b8787a8a6U,
  0x8a9a98a874a85787U, 0x99aab2ba48997789U, 0x79878778b2797889U, 0x8886b87899899677U,
  0x777c7c94a99b99b8U, 0xa7b9b78618a574a8U, 0xa6777887869895b9U, 0xa898a8ab6aa988c8U,
  0x877aa95b7657a7b9U, 0x78a9889c98a98789U, 0x56997786988a96a8U, 0x98869967889879a8U,
  0xa8787a8877878789U, 0xd7ca9b9b898887b7U, 0xa55a88889978859aU, 0x9877688477768898U,
  0x978ab9899696b878U, 0x89786468869a8a68U, 0xa899a68764959796U, 0xa8b7996c9989aaa7U,
  0x9a86898696a88859U, 0x98b9c778baa38b9aU, 0xa8887a8766489ba8U, 0x577a776a787887b8U,
  0x8a77b6bb9a879899U, 0x9698999787c98687U, 0xba68885578a57698U, 0x778a486887986689U,
  0x9979ab868b96578aU, 0xc8c46785998a8799U, 0x886b958678979b7bU, 0x79889a867978a7b5U,
  0x7986b8787697597aU, 0xb7775fcc688688a6U, 0xa777768896767886U, 0x8987698b799699a7U,
  0x8697949b885aaa98U, 0xb8b95a99a7896ca6U, 0x887b6a778a978777U, 0x78ab887596888799U,
  0x865669aa847799a7U, 0x9a79989885a67687U, 0xb8a798a7879687b8U, 0x698bb9687899ab97U,
  0xa7987b97a6876686U, 0xc87dc99a969886c7U, 0xcbaa969979998c66U, 0x999989849aa65676U,
  0x7a9799588c997878U, 0xd7777c6b69989697U, 0xa97767988a6a7786U, 0xa869698667857678U,
  0x88778b94e8aa6777U, 0x49c87a78f99c6899U, 0x887c6877b9998a89U, 0xb6976aa87a8798a6U,
  0x8cbb686b7ba9b879U, 0x8799899d799a8578U, 0xb6a888a9886b8477U, 0x8877697989767898U,
  0x98a99a8977877986U, 0xba97b879768a9878U, 0x3c8a999678979a79U, 0x799a69937a87c766U,
  0x778aba48749a4977U, 0x3769825d777a8797U, 0xaa889888bb69687aU, 0x985a787968a97797U,
  0x8779967d356ab858U, 0x78aaa878ba896588U, 0x9aaba788a7668b77U, 0x7a87675b7677788aU,
  0x76b7a6ac88659888U, 0x9677888699c48688U, 0x86a7996598579b98U, 0x6979a87799987b68U,
  0x688a9478a6988787U, 0xc68bba8b78878a68U, 0x8a98877b89987b98U, 0x8879aa888a69b67bU,
  0x968968b88b768786U, 0xa7989e69989a8a87U, 0x679aa78b84776989U, 0x8998a8687798a789U,
  0x9a9d898947668976U, 0x79b8979757a37388U, 0x966a87a865499468U, 0xb79ca879979789cbU,
  0x8887b6568ba587b8U, 0x789888848a548677U, 0xa868774b89bb8c96U, 0x987747c879a779a8U,
  0xa88769798789a599U, 0x4657689a7888977aU, 0x87b6858789968979U, 0x88887678976ab775U,
  0x8678ba9978678965U, 0xbaa68cb9ba888879U, 0xb796a99864866787U, 0x6797769a889678a7U,
  0x7783847c68b66756U, 0x575998973967a599U, 0x899a6aaaa9978967U, 0xba968a68897778c5U,
  0x7b98b6b484898a78U, 0x76a8888a7ab99687U, 0x5869984597658b66U, 0x6975aa7789999679U,
  0x79679588799abb8aU, 0x879cba986a9987a8U, 0xc7989a88898a8589U, 0x9989a88988796679U,
  0x8a7aaa588b765788U, 0x9868b67b567687a8U, 0xaa87a99a578b9797U, 0x97a656887896a979U,
  0x8976849b68b669a8U, 0x5797479849766a69U, 0x98777a8699a99898U, 0x7977985769778959U,
  0x8656596a9b9b7678U, 0x8789979777569997U, 0xa79997b988ab9598U, 0x8988c86898887969U,
  0xa767a688aa866a89U, 0x8675a796979988a8U, 0x38877a759998996aU, 0x8787a7978979a865U,
  0x8776998878896a96U, 0x58a94a5aa9988977U, 0x5886779763986777U, 0x98897a66998a6899U,
  0x887a959ad6968885U, 0x69478987c879a599U, 0x789c99a97b577857U, 0xa788a876a987aad9U,
  0x9a9755658a55b868U, 0x8999886a77589978U, 0x9998789999678687U, 0x9989966997677868U,
  0x98689589899a598bU, 0x9a67b876977998b9U, 0x45ab877699997979U, 0x98798a848997a7aaU,
  0x8776a9599a997989U, 0xa78a96b5c7878897U, 0x8b8777886ba9a899U, 0x77aa5988a889b987U,
  0x96a686863859988aU, 0x8999ca7ad9a695a9U, 0x99897998a9b69798U, 0x89a6a8758a7a8958U,
  0x855b79b88496aab8U, 0x76b99783a76a8b99U, 0x8858987779789b88U, 0x699c89a798998687U,
  0x787799899997b689U, 0x6a66477674788797U, 0xa46a779899897c6aU, 0x9997587c78886885U,
  0x7b79a8379587a889U, 0x8aa97b8b46797797U, 0x57968789c9956987U, 0x8969999786755769U,
  0x997678939bc96879U, 0x587889791a98a478U, 0x897ba99997778a97U, 0x69787799799899d8U,
  0x96bb67c69a54ab67U, 0x99697aa6798c9587U, 0x86b87895987896a7U, 0x9896968988789a98U,
  0x688886779b796c86U, 0x5689a6877998a797U, 0xba75898679978698U, 0x997986898899b9bbU,
  0x97698847868a597aU, 0x69aac7c447998a56U, 0x999a877a89757888U, 0xa767766798987697U,
  0x8a7378783786a7aaU, 0xb979767939a58997U, 0x796a77787a578597U, 0x9a6ca94a78777978U,
  0x7598784875677669U, 0x77788997787b8a88U, 0xa798975a98a586a8U, 0x88ab896889a67678U,
  0x88666a8866769a8aU, 0x76ba888997777777U, 0x9b95888798777498U, 0x7986a9968a79b78aU,
  0x7976a75994a8a998U, 0x68899165a9977987U, 0x8887a689a7647788U, 0xa969776a897b8797U,
  0x7694849a88496777U, 0x797947896964a898U, 0x6759b77a89b98799U, 0xa96a67876a777788U,
  0x769a4885896877a7U, 0x9597877696898689U, 0x86a89986877574a5U, 0x7878479888788479U,
  0x77797998ab8a9b8cU, 0xcba3b6777b7877a6U, 0x6bc9769699979b79U, 0x9789a77b897997a7U,
  0x8778b8899c87c979U, 0x669868d7a8777a86U, 0x7599778a8479a79aU, 0x988a877a9879a698U,
  0x88688776584a9768U, 0x9ab98a77a7a88676U, 0x9baa788989b885a9U, 0x9775999a67779947U,
  0x9a68a9597866a759U, 0x7887888b77c99799U, 0xa9a8999a989b9b89U, 0x8867a97888b97888U,
  0x9997aa9689875889U, 0x587994866c7787a9U, 0xc495779689997a8aU, 0x879788957876686aU,
  0x89775aa77a8bb987U, 0xaa9abcc5b69979a9U, 0x957969898596a879U, 0x999a997698869a67U,
  0x869e869bb9d699a7U, 0x9888a78678986488U, 0x78766a97996a7668U, 0x66669778998877c8U,
  0x787b5b367594aa98U, 0x9679968a969b7c89U, 0x8678886589557869U, 0x887baa8897a9a988U,
  0xa889a7999d776979U, 0xa965799a988889a7U, 0x44aa999a98787b7aU, 0x8887b78989a639a7U,
  0x779a66a79599997aU, 0xa966ad6ba7997789U, 0xa599a787cc86a988U, 0x9859878567a76869U,
  0x9a9d8c978a5668baU, 0x57676a97d99ba8a9U, 0x766756979b579778U, 0x5879867877786977U,
  0x77986aaa85a47a97U, 0x9969887686589678U, 0x7aa8797a974b8666U, 0x999bb9578998a678U,
  0x885a8697a888b57aU, 0x885b5a777b7788b6U, 0x9756899797997888U, 0x88796b747999487cU,
  0x7a896a888c848797U, 0x59798f56c7a87767U, 0x67898a88899b8989U, 0x77978795898bab99U,
  0x899d8a7869978797U, 0xb95968979966a397U, 0x8a8a889979678498U, 0xb798a7686879788aU,
  0x86777a39869597b9U, 0x8888989987868889U, 0x686997c487768ab6U, 0x9886478988967d68U,
  0x77b7a899758a5598U, 0xb9ccb9858d87a889U, 0x8d79867a99899976U, 0x7877a9878968968aU,
  0x897a79587b967977U, 0x68aab6b849787a87U, 0xab88677763997998U, 0x997a998a69768778U,
  0x979b768dea5aa897U, 0x7986a986579b62a8U, 0x87ab8989a78684a7U, 0x688b8a69aa788aeaU,
  0x9a964776775495a8U, 0x9788779a75a57c98U, 0xba68889687b79bbaU, 0xa875b78878967a88U,
  0x97689c998598b898U, 0xc9c7777b9986a7a7U, 0x9a46767789897788U, 0x9978899b97a8575aU,
  0x86777aa87a8a698aU, 0x77a9a5db57897668U, 0xbb887896bb996986U, 0x79569a9796896899U,
  0x8a9c88976667b977U, 0x6898668a3a96aa67U, 0x79777677a96a9a97U, 0x67669a7aa97787b8U,
  0x8a5b6bc69b4779b8U, 0x8879798b959c9888U, 0x8658986b79898578U, 0x97a9a8a99898a788U,
  0x8887989768766786U, 0x59647a7788789868U, 0x6a7889977778769aU, 0x9987788679a9b798U,
  0x8a796aa8877b4996U, 0x5797b7794888777aU, 0x9697668789a68996U, 0x9967a67798776a89U,
  0x89a97c84594a9957U, 0x97975a9957747b99U, 0xa6a879797ac99a67U, 0xa989666768897837U,
  0x8487a685756aaa99U, 0x78a889998a668a88U, 0x4698877a98b58797U, 0x88a8564877699898U,
  0x89b67a96a9866876U, 0xa945b97779787769U, 0x98c697898867997aU, 0x789776868788578aU,
  0x7787686875797886U, 0x47885c57998a7996U, 0xba86989637a6a97bU, 0xa99aa9999697a697U,
  0x7886846cb968a98aU, 0xb7ba9677b8a77887U, 0x79887688a5598ba8U, 0x7776a9b9a9a989b8U,
  0x8998968595877767U, 0x9ab9898a79c67b89U, 0x78b8996587aa8b79U, 0x889568c98977a778U,
  0xa8789a888379987bU, 0x66586777768797b9U, 0x4a799a99787887a9U, 0x8878967486874875U,
  0x78aaa93998756787U, 0x27a77bba4a9a7b77U, 0xa787a98a73769999U, 0x79b9779a9786aa78U,
  0x7674849e7856a7aaU, 0xa7a79a8719998898U, 0x8888a67779469b88U, 0x77777a7599888896U,
  0x79885aa88765b567U, 0x7797889b75b78c89U, 0x6b979747876a86a6U, 0x9893aa7899976667U,
  0x97b7779777878b8bU, 0xaa935997ab8a9957U, 0x4d9b887678799687U, 0x989798888966b879U,
  0x9679a6b87975787aU, 0x4888b275aa7a8886U, 0xbb8978867c9a778aU, 0x787987989996b777U,
  0x899a868aaa68b9a7U, 0xb8987889388ba8aaU, 0x9a95b7a966679958U, 0x689c88889aa889c8U,
  0x8a7795ca88549668U, 0x89a8897486b78b79U, 0x78879958886a7b7aU, 0x889479b887a89598U,
  0x997679877678bb89U, 0x576a587788997957U, 0x87a6776997a79a98U, 0x7878768c8997a877U,
  0x768a99d9889ab868U, 0x8666467488879789U, 0xaa88788a5996a788U, 0x68b79966878a6888U,
  0x998b797b97c96786U, 0x5857487948779aa9U, 0x8868978967a98ab8U, 0xa99a8997898997b7U,
  0x869a94988ab86998U, 0x8887788b77487888U, 0x777868a679698486U, 0x898a797878968599U,
  0x67897a87ab989b86U, 0x96585a948a79b856U, 0x8555988589989578U, 0x8778977497968785U,
  0x8689989886787776U, 0xd89a4fb597987769U, 0x9779677a78976998U, 0x7776a7a688898a89U,
  0x877e888549b878aaU, 0x89a75898c98a9589U, 0x976a67686aca78a8U, 0x5986866798987969U,
  0x86b78baa8c8ab778U, 0x8899976a7bba9887U, 0x8a77989498767769U, 0x787549a8876788a7U,
  0x7869798874769a76U, 0x885d6a876b997968U, 0xc5b7788889898798U, 0x9979898c798ab9b5U,
  0x798aa6499498b787U, 0x5a99b49b49778a9aU, 0xa78799884a987a77U, 0x6879576797789898U,
  0x797588957a56699aU, 0xa759ba89da9b9969U, 0x78777779a7a89999U, 0x7768a87977988975U,
  0x8787ba7689ba8689U, 0x98a8899589ba7b79U, 0xa75787a879b689baU, 0x688547889789aa78U,
  0x88689b9966978988U, 0x4ac5469879869778U, 0x3b889b7988889667U, 0x7797967a9799c776U,
  0x88866768896a979aU, 0x9799ac84c87a77a9U, 0xa589878ab76b7889U, 0x689a989669896a88U,
  0x79979c93c887a668U, 0x99866788a69863a7U, 0x8787aa778bc89a98U, 0xb976a8b76a7779a8U,
  0x959a6b66959c8898U, 0x9699888b88468589U, 0x96588995987896a7U, 0xa896a69998697699U,
  0x89a8787985987a9cU, 0x578ca586698987c9U, 0x8d4679997777966aU, 0x78899a8b8767b884U,
  0x9687976893965789U, 0x69989896589a9889U, 0xba8a8688c86a9987U, 0xa786aa86768a8a88U,
  0x897a76744876b756U, 0x78a767781768ab98U, 0x897b696966688769U, 0x7aaa768b7aa87898U,
  0x7b6866378bb78a98U, 0x9678898785b68998U, 0x598789bb897698a8U, 0x6898b9887887a998U,
  0x785886976c78677aU, 0x6894b68b8a767759U, 0xc578789589998aa8U, 0x998987948898b7acU,
  0x7696a7588a78c7aaU, 0x468abc9656a89669U, 0x778a798885aa6786U, 0x897756a6779b6688U,
  0x78748b88a646b976U, 0xa98a8687b8a78aa8U, 0x877b7a77689776a8U, 0x977aa6767578786bU,
  0x7988686a85946b89U, 0x9a77878b88968599U, 0x677897c678b59a89U, 0x97a8898889a7a888U,
  0x78b98a7abb766787U, 0xb5bb87957c867867U, 0x45588887979789a8U, 0x979968738a884777U,
  0x8586576979a68986U, 0xb697ced7978788a8U, 0x6a9a9778777a9979U, 0xa968988798ab86a9U,
  0x987b777c49686858U, 0xb769b996d7948b89U, 0x8a77a78769a98497U, 0x998a8958989777baU,
  0x945a5798885b7a99U, 0x76688875a8868697U, 0x99877a4799798bb9U, 0x599567a898aab777U,
  0x68a999877a798994U, 0x96ad9b7b8b878869U, 0x59c9858997878b99U, 0x78898a8b77a6396cU,
  0x897978689886a87aU, 0x7868af36d7798999U, 0x7879797a75956897U, 0x69a9568769987799U,
  0x9799788c9b986777U, 0x77a68677899ba8a9U, 0x879b7a7a6a988a78U, 0x9997a7969777885bU,
  0x76a97944769b79b7U, 0x8988896689868797U, 0xba79999979559767U, 0x889c79b978a67b78U,
  0xa9879977767a5586U, 0x8677a688989688a8U, 0x7da7879599998979U, 0x7976877896776886U,
  0x989a4aa98aa9779aU, 0xc8798a93b8797768U, 0xa79b8a7a6b8a9897U, 0x99999a8578aa97a9U,
  0x778e978e66b8b77aU, 0xc8bad777688b6397U, 0x99768a99a6b68687U, 0x7799799687998768U,
  0x88886abb9b5a8769U, 0x8aa978ac78858778U, 0xb998877888ba8898U, 0x988a8a8888a97798U,
  0x978788886a89a588U, 0x985c58896c876897U, 0xb545968587777ba9U, 0x9978aa8b8a97778aU,
  0x877698497d958896U, 0x7676beccb7aa7798U, 0xb688988958767777U, 0x9a665668698896a9U,
  0x98959b7b5a778997U, 0xa8a9787ac99593a8U, 0x87975779a8b88859U, 0x57859966a78999c7U,
  0x9a79b52a98ab6887U, 0x9a67987596879a87U, 0x77b8896689a98997U, 0x6976b9579987ac99U,
  0x68b6799968997687U, 0xbb77a78788898799U, 0xbc88988a899889aaU, 0x7889879c79a8b99bU,
  0x977769a975984977U, 0x88995aaaa67a8658U, 0x6b8a8a89656a9687U, 0x7768b67689966a77U,
  0x957c7b73a99ba887U, 0x896ab77a2a9a7c69U, 0x79aa9aa975c88977U, 0x68a777698a7989a6U,
  0x9677a6d679859b98U, 0x7779889669b99897U, 0xa9989ab8986a76a6U, 0x9996977888996589U,
  0x987898886975888aU, 0x97bab7867b7a8777U, 0xb8a5869999787a88U, 0x7788687687996966U,
  0x997679a87b6ab768U, 0x86764b8996869899U, 0xa596998a8677787aU, 0x678a9996698a8a78U,
  0x89738b6c68b5a779U, 0x8957578627978d67U, 0x76a8a59788788599U, 0x76966977aaa778b7U,
  0x86a867958b877789U, 0x86577984854a8a78U, 0x9a678766885a9579U, 0xa7685a77879966a7U,
  0x98c8799a85985a97U, 0xb9a567776a97988aU, 0xe6778a9877989b66U, 0x987988858886596bU,
  0x8a77a7897599b898U, 0xa889968457889a77U, 0x88889a8b93ab888bU, 0xa8a9777a98968a99U,
  0x899a8499a8d9b857U, 0xa958c69877788377U, 0x8a699969775687a8U, 0x6999a7959a6798c6U,
  0x76565a6b76757689U, 0x899887788a599b87U, 0x7699785b897b8aa6U, 0x8998c9b998a99b88U,
  0x8767869884988a89U, 0x47898576878a8799U, 0x6dc588978877776aU, 0x9987687a8777a855U,
  0x99a8a94784989976U, 0x4967919ba8997769U, 0x8689797996856777U, 0xaa6ab86869876877U,
  0x9a64847555a7b889U, 0x9788678a4784a889U, 0x8978769777a798a9U, 0x8996869b8877778aU,
  0x7ba596658969aa58U, 0x8688877877699987U, 0x8898895797c88ba6U, 0x98937769988878a8U,
  0x87988a77787a697bU, 0x566cbb9598867777U, 0x95468a8b98879779U, 0x77988684978797b9U,
  0x8aa69ab99b7a97a6U, 0x78978e53b9878667U, 0x8898aa7767a59797U, 0x7997666b7876a9a8U,
  0x898c779ba6a58879U, 0xb998a779f874a5a9U, 0x99aa9a977a8a8769U, 0x77a8677678787736U,
  0x75a669b89979b7b8U, 0x89a8989c79b87978U, 0x7b8787a899599cb9U, 0x9887579997a98898U,
  0x788786887977a886U, 0xcabb88769a79a9a7U, 0x98559878788987a6U, 0x7999a69a8a87b889U,
  0x7789879998849999U, 0x2998ab749a779b86U, 0x6b7767868da7897aU, 0x7796a85aa89aa898U,
  0x9886759c37c87969U, 0xa967ba9a4a879b99U, 0x8aa7969876b886a7U, 0x978a8a4b6a777787U,
  0x949a76a7757687a9U, 0x8aa79a7588b79a99U, 0x9697998987777b9aU, 0x7978caa788a79998U,
  0x69869498a8998a79U, 0xba6399969b878987U, 0x5496898996877765U, 0x799779998a8aa757U,
  0x7799899777984789U, 0xe9765f44898a9878U, 0x6687798889979796U, 0xa89679a889759988U,
  0x8a86858469b6a7b7U, 0x67b7b797e9997aa7U, 0x897786a9a9797b68U, 0xb8698aa5868777b6U,
  0x7a698787856ba8b8U, 0x79a7788598398b97U, 0x676897c688598986U, 0x98ad396888a868a8U,
  0x776788867a8a9696U, 0x4bcc65899b8aa8b7U, 0x5bb68797889986a7U, 0x889967888987686bU,
  0x967758679b786797U, 0xb6685da9c7978a99U, 0xb78767869a7aa797U, 0x9a8ba78798858788U,
  0x9775957b99866abbU, 0x9867a8888a878569U, 0x9aa85879969a8b78U, 0xa97587a66987888aU,
  0x886a76567a78a599U, 0x8a688a67aab58589U, 0x8988798889598666U, 0x679aa7998896a879U,
  0xa78795978a85bb85U, 0x498b8a9a9b976956U, 0xb378758677888598U, 0x9886689787779788U,
  0x9886a9b77b99886aU, 0xaa773d447a797799U, 0xb68688969aa87898U, 0xa78aa886779b8b89U,
  0x877c9573da5658aaU, 0xa888498796758387U, 0x759a79879aba9657U, 0x886b989999877759U,
  0x74685a9788a97877U, 0x8768887677668777U, 0x86a977b977789965U, 0x87994a6887699a98U,
  0x88b79b9898758585U, 0x87599887aa879798U, 0x7a85987898967777U, 0x7888598999798766U,
  0x9899a6d776977879U, 0x47769b4679888988U, 0x7986978a4b799898U, 0x79978999767a7797U,
  0x97748579b75a7788U, 0x59485a9947778da7U, 0x775a6998a55a8ba9U, 0x987576a79a6877d7U,
  0x785768668bbba759U, 0x858989a579657a77U, 0xb678888b99699769U, 0x796b7a5997a97aa8U,
  0x8957967665987b89U, 0x896c898b9a8899b8U, 0x6a5b7b9898867a88U, 0x788897868998487bU,
  0x9b79baa88799c78aU, 0x699ac5d586977769U, 0x77768988767b7a77U, 0x789868aaaa889a69U,
  0x79677697aa8a99a9U, 0x8867a876b88695b7U, 0x8a6b9a999a568ba8U, 0x798996aa6a996867U,
  0x87985adb86888978U, 0x9587996479a69698U, 0x8768994987a58c97U, 0xa799586787869797U,
  0x89888698697b7997U, 0x5a5b869a689a6699U, 0x5659979799678879U, 0x7889999687984757U,
  0x9b7a79679c7ab897U, 0x689a6ab3997688a9U, 0x889998898c787889U, 0x88a6997aa7979a67U,
  0x78969784b7b987b9U, 0x7786a88b39658a68U, 0x9a96a78886778869U, 0x679688b796a888b7U,
  0x8886768b995b87b8U, 0x7697888b7bc99877U, 0xb69988bb78a699aaU, 0x9787a8b989779587U,
  0x88887c9978847778U, 0x7547878886898758U, 0xd855879587888a78U, 0x7897b7887979d955U,
  0x99a88ac89a98a999U, 0xa969655657768899U, 0x9a76897aa2797987U, 0x69a77a9597967a88U,
  0x89797878c989984bU, 0x679a9986a9aa8e97U, 0x89aa8777a5597679U, 0xa789968979977985U,
  0x767995a68788b769U, 0x8867879689897878U, 0x76688788888b9aa7U, 0xa984ba7787679997U,
  0x89b97489a5998584U, 0x86498a759b9a7796U, 0x8daa767877998398U, 0x888966758666785bU,
  0x797959789896c786U, 0x4977639897878999U, 0x9b8898875b976a79U, 0x9869677779968978U,
  0x88788a77b7988779U, 0x8758c79848749a77U, 0x99676877888784b7U, 0x8779965b969889d6U,
  0x9aa867b8737c88a8U, 0x8a697866a5958989U, 0x997976a678a78b8aU, 0x989c4a97797a7a97U,
  0x77799c889b8a9786U, 0x6acc589ba6878768U, 0x6ba679989998888aU, 0x9889797488866766U,
  0x868868d777a6797bU, 0xba79687ba88986a7U, 0x7879788ab3978979U, 0xa7a668a97a997997U,
  0x89789799b9caa989U, 0x98b86996ba797587U, 0x77a9a8697a897568U, 0x786a878b7a888896U,
  0x867a8a4b7a8a77b8U, 0x9758879699587588U, 0x78697a6a8967987aU, 0xa786d9b9779868a7U,
  0x8979799887876577U, 0xc99aaa85a47878a7U, 0x6bb98a9689797997U, 0x9898779d769a677bU,
  0x97776a779895a96aU, 0x478a79495a788999U, 0x677979899aab9979U, 0x79896985a9887988U,
  0x978a7c735785a778U, 0x786a568ac7a89587U, 0x676b887866988787U, 0xa79898468a79996aU,
  0x775659ca76969869U, 0x889988988b6b9a88U, 0xa967775678a47666U, 0x688abab899689a98U,
  0x78799689988bab9cU, 0x88b6887899867a66U, 0x5c5788857977888aU, 0x8799789888688776U,
  0x98a89798788b4798U, 0x98a8a98867997666U, 0xb688a9869da9a989U, 0x77586664a97a9887U,
  0x8996998c7a6887baU, 0x78895a87769a8a89U, 0xa8ab9a68889a7b68U, 0xa8767aa8789887a9U,
  0x756b6ac57b678698U, 0x6767888ca68b9587U, 0x78b899b8887a8877U, 0x977677978867aa98U,
  0xa7a8a67777875a7bU, 0x98869676aa87a869U, 0x7d387997988a8999U, 0x8799a775888a4778U,
  0x7888874989a87778U, 0x479ba28a9a779669U, 0x9879679a6398b798U, 0x87a76aa799868779U,
  0x799b9b75b66a9aa9U, 0xb949a99849768579U, 0x9a768997b86a8ba8U, 0x787b99aa8a787a9aU,
  0x75656aa899ac6977U, 0x96b9777b77bb9689U, 0x79a9975b89979566U, 0x899aa7888879a667U,
  0x8887978778769598U, 0x6aa5b78887876857U, 0xdb58989879899469U, 0x7887a777996868b7U,
  0x779768a98697a777U, 0xa776a39459897887U, 0x798777878697b88aU, 0x68aa67788686a966U,
  0x986c958977d877a7U, 0xa76869874a995578U, 0x787a7679a66a84b8U, 0x577567b66b788999U,
  0x998978d99753ba68U, 0x88a9897678888677U, 0xa877787687b5856aU, 0x7785b98887786598U,
  0x69977c888379878cU, 0x9793b6758b8a9798U, 0xb6898876799985aaU, 0x97796878889ab897U,
  0x9a97a9386ba9a987U, 0x889773c8477a8977U, 0x9887987885966987U, 0x87676788a87ba587U,
  0x876a949547569858U, 0x9968c68a269795a9U, 0x77a699a69a798b69U, 0x7968a85b8688884aU,
  0x89678a56885b8587U, 0x9a88986587798888U, 0x59689899999a7686U, 0x789ab97878a7a599U,
  0x9889778a9698888bU, 0xc77656969b97896aU, 0x7c56887698799aa9U, 0xa879a98b86986756U,
  0x9a9a799976a8b8a9U, 0xcaa6c444677a8a76U, 0x6b888a866769a786U, 0x878a68878a9a8777U,
  0x78868b85965867b7U, 0x88589a8a997a78a7U, 0x96676a8887578a99U, 0x88aa7a67796898b8U,
  0x74bb88ba997bbaa7U, 0x97697896855a7878U, 0xa6587859986b7b88U, 0xa879ba5998a96589U,
  0x696675787986b78aU, 0xb86476869a898797U, 0x78b7988877777699U, 0x876977658a99c96aU,
  0x798768999875b878U, 0xa7765c3a87789697U, 0x8b9a7779976b8a99U, 0x577a8686a8768997U,
  0x878b7a7c6ab6a786U, 0x788a499766a76c96U, 0x76899987687777a7U, 0xa67a66798a998878U,
  0x9777aa4c89a7a658U, 0x96a98a9b78598578U, 0x98b7794587967796U, 0x679656a988996a99U,
  0x9866a799698a7976U, 0x55c66a9679887799U, 0x8b598b8867a79786U, 0x77789a7a877a5766U,
  0x777a89b89a77b997U, 0xb787798857799a66U, 0xaa8aa98698896886U, 0xa79797b9899a9767U,
  0x8a9c897b68979796U, 0x58987689aa9c7aa9U, 0x8a9b87979a878898U, 0x9875a895a878a786U,
  0x997a8b5a86675888U, 0x9859998477ac9a97U, 0x8977885b77ba76aaU, 0xb97cc999787967b8U,
  0xa788ab776499b786U, 0x57b988767778a7b7U, 0xa66a87978777877aU, 0x7779997a8889a8a6U,
  0x77a6b7489598b797U, 0x39a654b58a979b79U, 0x6b8869889599a988U, 0x98b8867688766998U,
  0x87757689688a6886U, 0x5959997937857da9U, 0x79797888799a96a8U, 0x996987777a99787aU,
  0x86a9677c88779788U, 0x976899967a6b9b87U, 0x68a8779b78a79868U, 0xa976c788789a8988U,
  0x885793989689b788U, 0x6696bb9767977969U, 0x448a799788868aa8U, 0x78899a7987685989U,
  0x798776b77a876876U, 0xb77865a9ba988a78U, 0x599779896c8aa798U, 0x6765aa8898789a78U,
  0x8882978337b5a776U, 0x99b95877b8a66b89U, 0xaa8aa978a5679998U, 0x9696866888979749U,
  0x7ca6975993bc9677U, 0x96b778a976459897U, 0xa88998ab88679aa6U, 0x7889387778989987U,
  0x7968a6866c876b95U, 0xb8d4979a7a768957U, 0xc76a8979889a7b97U, 0x7878679588775687U,
  0x8a67596996888797U, 0x7976bab9967996a6U, 0x8c8877969a96a776U, 0x777787a788876a67U,
  0x89879698a9ab78c8U, 0x9979879897785489U, 0xa67aa8996b5a8669U, 0x77996a976a9798b6U,
  0x9ab69b6a9b7b7969U, 0x7669878b87a77978U, 0x856977b887ac759aU, 0x979aa8799968a979U,
  0x98798789688abc84U, 0xa6ce989aa68a7968U, 0x8bba9a8897988a7aU, 0x97786888997897acU,
  0x788788788888787aU, 0xb777a7ab488a8999U, 0x788a998794876798U, 0x77a8799678988768U,
  0x88977587aac96986U, 0xa958488a8a9b7ca7U, 0x68aaa97977aa8da9U, 0x97866857699888d9U,
  0x98b76a778ab97987U, 0x7898878c8b4b9789U, 0x666897b89869849bU, 0x988cb9a878697a87U,
  0x88698c996b798976U, 0x9ba7768b8a7987b9U, 0x89c5998697a78b98U, 0x8897989c8999ba56U,
  0x97a78a688a969877U, 0xc98972a948797996U, 0x6a89889abb78a786U, 0x97968ab6a68a6789U,
  0x79a68986965a99a7U, 0x985a8888a77a6477U, 0x998a9979a6589c87U, 0x7787799876887787U,
  0x76b8ba897d8b8788U, 0x9999778b98698b89U, 0x779977a88995769aU, 0x978ab697898a88a7U,
  0x89779c776c866886U, 0x5863767875877867U, 0x9678789788887677U, 0x88996a79967978abU,
  0x769867378a8a66a9U, 0xe8796d66978978a7U, 0x79897a8a757b7786U, 0x7a9769a6a8856aa8U,
  0x978e8a9c4967a767U, 0x68b76a7866999c68U, 0xa7769788a9598ca7U, 0x698558c68a7899b9U,
  0x95967bb79b6a89a9U, 0xa789877595888687U, 0x87a8779b888a8697U, 0x689a799878a698a9U,
  0x79869b996789779aU, 0xa89d5b9b9b8aa988U, 0x5b59877787988697U, 0x9889b68988696795U,
  0x8778aa8898975978U, 0x57799456796a7769U, 0x8787679976786989U, 0x67b96a99aa989997U,
  0x986b7674a6779789U, 0x9898b87a88749767U, 0x6a85688896a68689U, 0x98ba68b86667886aU,
  0x955879c576c85a78U, 0x7a67798886b68687U, 0x6a98985b886a9797U, 0x7897aab787a97a98U,
  0x88a896987d9a9585U, 0x376cc67b9b99a9a8U, 0xdcb8979987797797U, 0x879788758999495bU,
  0x9a76b9776988578bU, 0xd8795e5dc7788978U, 0x7586887ab8786986U, 0x96aa5899778879a7U,
  0x779e7c85b9896957U, 0x99994a8898968576U, 0x98589aaaa8698898U, 0xc77568689677874bU,
  0x97a889797bb566a8U, 0x9898878ba8977989U, 0x699997c9889877a6U, 0x6676578979788b67U,
  0x78a977977898a78cU, 0xa7aaa7879a766788U, 0x6788787887798666U, 0x8878a764868748b8U,
  0x9b99595aab669796U, 0x9a8674b8a67a777aU, 0x7588a78aa9698a97U, 0x66a95a7767787697U,
  0x88738a88e996a8a5U, 0x6797899628696a69U, 0x766b998a88878877U, 0x786998a7777897d8U,
  0x8558b6bb94678a67U, 0x7767878686958888U, 0xc69798a888678589U, 0x989b5a8878896688U,
  0x89b78887848aaa8aU, 0xb69b46767a767979U, 0x59488b85887a9b98U, 0x98788a8588999795U,
  0x99a687488b79b997U, 0x797ac7a948878577U, 0x7a886785c97a9798U, 0xa787989aa68985a8U,
  0x778487a4c6a69859U, 0x9798578827a6a5a7U, 0x7a777a98a6998989U, 0x7885aa769898a95aU,
  0x94797b55777b95b8U, 0x7a698886768a9989U, 0x99a7766c887a7bbaU, 0x6794d7b79977a979U,
  0x9778a987ab986687U, 0x668ba98b8886b867U, 0xb98b8a9698888768U, 0x9998678b87a857a7U,
  0x956858487d889977U, 0x989b5f77a8989666U, 0x6597879a7785969aU, 0xa797868878868877U,
  0x999a95a7995a8789U, 0x89995a96d76b6999U, 0x78786778868a8b68U, 0x9766a79779977749U,
  0x89a6a8277697ba89U, 0x9aba889997778a98U, 0x79a899a9974698b9U, 0x5778b78989a7a968U,
  0x685774899b776585U, 0x89bb7988888877a6U, 0x92b7858869878b8aU, 0x8898577b9767b855U,
  0x788967c87b79b766U, 0x9a779d6897878698U, 0x957698789479a888U, 0x887a59b9a9759867U,
  0x878a7589c7c56787U, 0x6979668647875899U, 0x67ab7977a9678999U, 0x9778969969979886U,
  0x9a4896c989bcb868U, 0x8669887764458489U, 0xb78887b6779689aaU, 0xa78a47b877979b88U,
  0x89a886888686a78cU, 0x56659887a7888976U, 0x8ab79696797695a6U, 0x97987a8a86a7b975U,
  0x799679b785869879U, 0xc678ae6869867567U, 0x7576688a9379b997U, 0x6687b98697977999U,
  0x759c9b9d579aa856U, 0x99aa788936849d67U, 0x79756789aab88ba8U, 0x799a679997789987U,
  0x8987b67794aab8a8U, 0x9999887c96677998U, 0xa668775a787b866aU, 0xa894687889989867U,
  0x78a9857797765775U, 0x7674a77a77897757U, 0x67a89a8877889a7aU, 0x89988a7a877a9a6bU,
  0x9688b7d87a899987U, 0xb868687489789998U, 0x898997884d8baa9bU, 0x99a78796a8869a99U,
  0x7989779e694859b7U, 0xb8577999e9a99568U, 0x9a96999987a98798U, 0x586a87977699a8d6U,
  0x8a56477b77655558U, 0x8789877375aa8a98U, 0x78a8763c776577a7U, 0x6874795988979798U,
  0x99a8778875967a7cU, 0xa7cc56887b7697b8U, 0xc557879b87998677U, 0x8898a768879988b8U,
  0x789997887589a98aU, 0x9797b686b89989a9U, 0xa98888866c956776U, 0xa7897a7988776a78U,
  0x8a7886867696a886U, 0xa769a68ad8879ab9U, 0x87988a7aa6c99c89U, 0x7996a9aa8a99a989U,
  0x865b799b8b8daa57U, 0x7698889579988677U, 0xb769a97979699987U, 0xa7ac68b789867688U,
  0xa779957985786587U, 0x8a6a978a8978a868U, 0xc5857b7678799aa6U, 0x7889b99b87a9b878U,
  0x7877b76884864688U, 0x2868a8a6ba777696U, 0x66879786aa7a968aU, 0x889898ab879aaa88U,
  0x977a987c8a7aa886U, 0x78b75a7a267a88a9U, 0x86a8767995c77b99U, 0xa98a675a899799a7U,
  0x96958655948ba8a8U, 0x8889797989599577U, 0xb998897c98b76998U, 0x9974578888976878U,
  0x9787aa889699769bU, 0x886a878b76886769U, 0x86a69b8897a98599U, 0x98976984888ac77aU,
  0x88778ab875a78997U, 0x2987836958989867U, 0x8b8a798867676996U, 0x7996676ba886a897U,
  0x7676949a4b987889U, 0x7867689899876998U, 0x777a797996699688U, 0x688a675576a778b8U,
  0x878795b97ba56987U, 0x7787879367898a89U, 0x9aa9788588bb8ba6U, 0x88853a8798799889U,
  0x885a8a87ab766778U, 0x57a9788ba88678baU, 0x9a57887587998969U, 0x89a7688697a67795U,
  0x8789a978758967aaU, 0xd988668556a788a7U, 0xa9889887b3968798U, 0x89696ab86a9697a8U,
  0x877e98ac89cb6779U, 0xb7775686379a5c89U, 0x866b77996a6796a8U, 0x6a87696896889977U,
  0x799a6a668c7a9699U, 0x999887777c598887U, 0x667787ab88898b88U, 0x8786b97889867697U,
  0x78a78489ac776688U, 0x86cab7786a8a97b9U, 0x6689968898889697U, 0x987899758997a65bU,
  0x79969658857bba88U, 0xa9a6834b899a8bb8U, 0x67999786597b9776U, 0x999887a58aa768a7U,
  0x868c8b99e76797b6U, 0x77b6978758787287U, 0x6799968989589758U, 0x678a9859a7877959U,
  0x88679ac99957ba77U, 0x7997888b765a8987U, 0x6a6898a7795687a8U, 0x9784968987969979U,
  0x6977658757989576U, 0x97a67776aa8a989aU, 0x59877b889a9a8599U, 0x7778a98788a6b9a5U,
  0x8778b858988bb78aU, 0x8778939d49878988U, 0xb888889678968776U, 0x96b9b7b579889a99U,
  0x968b8b835a486859U, 0x67b767882a7a5878U, 0x996ba79a68b785a9U, 0x98769ab98787a89aU,
  0x98889a56857b9798U, 0x9969777886797a99U, 0xa668886c898a7666U, 0x8893d77899878878U,
  0x687865899a99ab96U, 0xba76557a869767a8U, 0xca8a898977999a66U, 0x7777968c76795986U,
  0x96768988859ba87aU, 0xb887669778798979U, 0xa68697978aa68888U, 0x87798a8689977697U,
  0x78657a938979a886U, 0x79489887daa67b68U, 0x9775967785588a67U, 0x7898a86576679866U,
  0x8459699b7458a997U, 0x86888a9877569997U, 0x59a8887c89a48499U, 0x788b66a897866688U,
  0x68688b98788aba85U, 0x5a8c5989788887a7U, 0x5ca7789687998b89U, 0x9878b78c8988b7a8U,
  0x9899a9a87588588bU, 0x7897b9cd39978968U, 0xab89789ac5869985U, 0xa76766b6789a8788U,
  0x88988a95bb67b889U, 0xa79896876877a3a8U, 0x7a99887975a89967U, 0xa77aaaba77877989U,
  0x777a64c58ab67a87U, 0x776887957ac98789U, 0x8a7899578978877aU, 0xa7849a8978888997U,
  0x99a7858877766a76U, 0xb89c7a7885867768U, 0x57a8787579787c88U, 0x9889ba898687867aU,
  0x886857578a76779aU, 0x8a988ac479977888U, 0xa897a9896c97678aU, 0xa69777b777797967U,
  0x799a9a9565b98977U, 0x98a78896678b6799U, 0x7676a9977b788577U, 0xb688676788797a88U,
  0x76979b6685668a88U, 0x9999897686bb9788U, 0xb898997899b67467U, 0x9878a85897767899U,
  0x7877ab89a999888aU, 0xb9bb689876978989U, 0x737b858b7878868aU, 0x797a69758869688bU,
  0x767887c7786aa798U, 0xb967bd65777697b7U, 0x8599998aa5798a76U, 0xa676777878868988U,
  0x97859693795697b8U, 0x77c7c89888779ca8U, 0x667878997a568569U, 0x779669568787777aU,
  0x89879acc88859aa8U, 0x9989977b89497c99U, 0x97a899589856958aU, 0x89947998789a7988U,
  0x79597b778787a79bU, 0x577d6977758a796aU, 0x4d6a888899888767U, 0x9887997588995996U,
  0x9999ab57798aa976U, 0x77a9c5db86778878U, 0x89896787b488869aU, 0x9a8779a5a7767699U,
  0x77659b875847699aU, 0x97c9ba8938945488U, 0xa976878767798578U, 0x9968a85a78979849U,
  0x95b695667bb79a88U, 0x99877987966b8b88U, 0x7858998b88b58a9bU, 0x99867ab7789aaba8U,
  0x977a8a99877b7b89U, 0x67566997a67967baU, 0x96b679aa87878678U, 0x8798a792898966abU,
  0x9689aa489885a978U, 0x5a789264579a9576U, 0x6889868a999b6989U, 0x897aa96b7a797989U,
  0x7a9d7597d98a8966U, 0xb8b9d97a378b97b8U, 0x7a7a7a99b7477778U, 0x9a76b84b67a787b6U,
  0x77876aa796869969U, 0x7a79789489a69889U, 0x9b67997a97899967U, 0x677957988896a688U,
  0x88979898948aa674U, 0xc9bb7a8a7a88a976U, 0xb8b77a9888977aa8U, 0x9997899577a9a98bU,
  0x7766974785985999U, 0x46a7a86a47768aa7U, 0xaa898989b7796879U, 0x6986b676a8968a79U,
  0x99a37b832778a97aU, 0xb886b796488874a9U, 0x9979a969a6c884a8U, 0x988ba97966978858U,
  0x9b69a9687676a689U, 0x7697779485c69777U, 0xa8b899b888c679a6U, 0x7964caa989878787U,
  0xa967a788ab897b8aU, 0x6766977a86868966U, 0xb578999599788468U, 0x9979968886aa57b9U,
  0x9a88997a9c87ba9bU, 0xc6674e56c9878a87U, 0x8a779997a79aa997U, 0x77698886a8769689U,
  0x77697686c656a7a8U, 0x69874a88c69b7499U, 0x9869787976697548U, 0xb8656ab689877896U,
  0x75b678d87aa9a857U, 0x7977989b87379889U, 0x88998869786c969aU, 0x867d996998678aa9U,
  0x78699788658bbb89U, 0x87859a87a4997989U, 0x3b9a977a79888978U, 0x8889798986a8b758U,
  0x996967778b78887aU, 0x5688aa3497778997U, 0xa588a77b6ba89888U, 0x688858677787a779U,
  0x787396899689a8b5U, 0xc997599a668495a7U, 0x69aa6a789ac77bb8U, 0xa8b886597668a946U,
  0x65b8a5689b6d56b8U, 0x868988ac7b597b78U, 0x79788866899a7679U, 0xa9a6b85888578777U,
  0x3fa19a55407851f6U, 0xbf54a6ab3f0ff0d9U, 0x3fa20b203fcfa5bcU, 0x3fb64c2fbf120cc0U,
  0x3f2adda7401f2519U, 0x4038877a4028a50bU, 0xbf809354403125deU, 0xbfbc123e3efce518U,
  0xbf7fa9a3bf4db551U, 0xbf00f79fbfe676d9U, 0xc0528412bf163bd5U, 0x3f559f6ebf1d58d2U,
  0x3f6d0141bf78b7a7U, 0x3f12823b3f538335U, 0x3ec6bd093d8cd577U, 0x3fa62fb5bf364584U,
  0xc020575cbf569584U, 0xbf012765bf382bb1U, 0xbfcaa6743e921c91U, 0xbf7314dbbf465337U,
  0xbfd26f03bfd8ae1dU, 0xc0118cf33f618fc5U, 0xbecd8567bf2c9bd0U, 0xbd4173d4bfd8c370U,
  0x3fe09364bf97f0f0U, 0x3dd060d8be89e03fU, 0xbedb88e7c0370675U, 0x4025b8ed3eab2aa0U,
  0xbe969da2bf8dce79U, 0xbef871fdbf8ee2daU, 0xbffe5d27bf97a4a7U, 0xbdbccd313eb0bf71U,
  0xbf9c5c463f853c37U, 0xbd850e0f3fecbce1U, 0xbe402014bcd686cbU, 0xbee65076bed86088U,
  0xbf61166fbe8388fdU, 0xbee99656bff0f1b2U, 0x405af9fdbf9b59cbU, 0x3fb99198c00630a5U,
  0xbfc151b6bf0d4be2U, 0xbf7cedbf3d0a361eU, 0x3fb71afd40070833U, 0xbea51365bfac01c3U,
  0x3fead2843ef20e15U, 0x3ee9de72bfd28115U, 0xc00d493ebf9d12b1U, 0x3d58f26440057e9cU,
  0x40215c61bf796d5cU, 0x3ea46875bf5a7c34U, 0xbde2f1083fdbb1ecU, 0xc019b3ccbfebafbbU,
  0x3f147a8bbf17d105U, 0x402269a4bf84ba91U, 0xbf934c65bf658f41U, 0x3f0b3d55403a4748U,
  0xbfa137523ec6a888U, 0x3f3d09e83ee1e29aU, 0x3f9a859dbf8c6380U, 0x3ffa1ba4bf95b199U,
  0x3f8ed3b4bfde9f1bU, 0xbff26f703edea11fU, 0xbfb66a1bbfa4e9c7U, 0x3f277db2be01875eU,
  0xbe608f5bbe8c1ef3U, 0xbe17df16be3b1b33U, 0xbda9a0b3bdf0b698U, 0xbbf59fc8bd3b0a8aU,
  0x3d8cd0303d04ab3fU, 0x3e0b10b73dd3518cU, 0x3e4f19653e2d234cU, 0x3e93c3843e77eaadU,
  0xaa2c78a64159d569U, 0x97586576a52bda44U, 0x9ba88a29b77763cbU, 0x5648985bb9b87969U,
  0x987448aaa965256aU, 0xd939761ac869485cU, 0x879b77666699bc64U, 0x2975665743a67674U,
  0x2b5ba46b67a06799U, 0x65269a8a7843296aU, 0x8a8aa9b85998976aU, 0x6757ca788a9a7836U,
  0x864aa99c2648aa59U, 0x7835497b95d8b848U, 0xb48c86ba749a5b85U, 0xa7a58a264696d839U,
  0xb37664c83247c868U, 0x7c7b9958594616a2U, 0x5b6b858399884787U, 0x472466554a7a6747U,
  0x94978491284b74a6U, 0x684a666a593bb436U, 0xb58763a6b687996aU, 0x575794293676c375U,
  0x8d2a6a4531647975U, 0x85786389a59a737bU, 0x586954b969544a7bU, 0xa584b888b46b8985U,
  0x57784a9e46782468U, 0x6587a429787ab6bcU, 0x65a7b5655b9a438aU, 0x58729437636b26c8U,
  0x6737943688588499U, 0x37da655486769758U, 0x4aa6894679676b67U, 0x36d5399b98675999U,
  0xb7768875b86526b8U, 0x889a7a1c5532855bU, 0x5749336576749b69U, 0x7ab97c9ab5ca8b78U,
  0xaa836c9a8c428835U, 0x9685575355c8b6d4U, 0x889686b55885baaaU, 0x57cba998548799b6U,
  0x96a36a72448b5b6aU, 0x1675971a5526aba3U, 0x925776aa83868356U, 0x97d7925736a8985cU,
  0x955b7e534779385aU, 0x4736399c5988ba89U, 0x37996b6b69551576U, 0xb42a55865e7865a6U,
  0x369856678566a6b9U, 0xd97a6a4399555589U, 0x59a6a37797543b56U, 0x433766898c4748b5U,
  0xb19589c4b34596a9U, 0x38b79b66a75655c6U, 0x9a8562aab797cb76U, 0x443a876a5c778837U,
  0x5a78a37655768674U, 0xb5386c5c49559657U, 0x66d55c368886b066U, 0x986a743da657878aU,
  0x8e38b1b5db779447U, 0xba6a6354c796aa82U, 0x995825bd6865bd78U, 0x85a59d85c06c7947U,
  0x89146b83aa5b9ca5U, 0xa598431679327a77U, 0x6a5952a58c665575U, 0x783854b6a4b82635U,
  0x64d4c49b5884a59cU, 0x7a56858376959468U, 0x8b479274a9953733U, 0x249356599b938957U,
  0x7c6534b67378494aU, 0x3353965b79e89b96U, 0xa665ba97827a9579U, 0x95a773868a65a982U,
  0x82597927b9352938U, 0x647ab49aa7b6caccU, 0x5a636c879747756aU, 0x66c577965c9485b6U,
  0xc298a9b8499b93a9U, 0x3a7a945e47b4b8a8U, 0x64cb493b32678a74U, 0x57a866b899571d75U,
  0x555a86d33a7e543aU, 0x989658646a365a6bU, 0x44a2d8d1867625abU, 0x89c74753c3867478U,
  0x5398876c895a3787U, 0x3784856a78332649U, 0x6a63b86997979875U, 0x767b877a49792799U,
  0x3bb688965999886aU, 0x9688639876779576U, 0xb767e2aa85957495U, 0x5437b484865985b9U,
  0x9435979a38565825U, 0xb4955735b8797479U, 0x86ccb9a566897157U, 0xa5169576556b9286U,
  0xc2b5b42352a54796U, 0x457455b68667b4bbU, 0x55852aba57a84395U, 0xc5cb6b759c956596U,
  0x897299929658269aU, 0x7a47a83e9872678bU, 0x8aa46a685488b996U, 0x86d88a836293698cU,
  0x988b71ecc4c9ea47U, 0x5b9ba94668562bb6U, 0x8965795bb8846b56U, 0xa999dda57b9a6866U,
  0xa8846b4f8b5a7c86U, 0x89c494b7578786a8U, 0x6ba8979695664758U, 0x58d7957499893686U,
  0xb79967868253a7a6U, 0x7676a488488888daU, 0x4aa8248ca8595998U, 0x67b74a68bbba94c7U,
  0x9693c78cbb9984bbU, 0x65988ba7a9b399c4U, 0x74aba699ca64729aU, 0x73db765a9a6869c5U,
  0x788688c7aa398a47U, 0x57885a64b5997bbbU, 0x6ba94564964858bbU, 0xc7a6bb9a69679725U,
  0x5878ba6cc6376b68U, 0x99c394a7b95469b6U, 0x5bd4b6a4464a6c97U, 0x936889c353a8ba47U,
  0x4b57435ac1661757U, 0x57667462b588b7ccU, 0xa84b935c97683636U, 0x457885aa35989768U,
  0x449968a755695a65U, 0x79b95c20b9818476U, 0x97ac9694a659b957U, 0xca669954875b7a4aU,
  0x3b5985437a379457U, 0x694984aa4a788ab7U, 0xbc3bbc6c789aa2a4U, 0xd58b926331597826U,
  0x9a888753ba5b5768U, 0x65b7798246bc9746U, 0x47739777dd8aa567U, 0xac3c695688ab6abbU,
  0x6998b18aa5dd399aU, 0x53754c58a7a558b7U, 0x916727b3a5a9596aU, 0xc794b946895297a8U,
  0x4bcb9677b6a43abaU, 0x4426845b688a3a62U, 0x380aa3c499a84298U, 0xd9496b45a2b58788U,
  0x9699bb27ab79d68bU, 0xa655897777754992U, 0x35b9839588466633U, 0x75588994ad587597U,
  0x4a64a786a5a98a46U, 0x3688344ca8866883U, 0xb728a687717a9c6aU, 0x6b75982923696794U,
  0x613a3a56726a7565U, 0x9768969436536718U, 0x5c527665999b8b49U, 0x743893597e858818U,
  0x6a863a6c496b6346U, 0x7789b53c77158623U, 0x9879863a55566296U, 0x96a988c9679775a5U,
  0xba3877465aa06b7bU, 0xb656979bc75746d5U, 0x8a76954a56978679U, 0x59b64d7568938597U,
  0x76a6899daa59aab7U, 0x173753ac2797da98U, 0x8468d3698c799d85U, 0x86288a5b496b2289U,
  0xcb56bdca8b3b74a5U, 0xb5897852a71a7456U, 0x4c56a669584792b3U, 0xa8b56aa7be598637U,
  0x5c56586496598ab6U, 0x6856b966884d8559U, 0x94883b6b9586858bU, 0xa48463a769a99a46U,
  0x73bc88698c95d66bU, 0x624a548676654982U, 0x3a782b8a765a9ac8U, 0x778677aa926498a9U,
  0x599478a478b837bbU, 0x387b776e8966a859U, 0x49d645a5297a4669U, 0xa98a58c6923abad5U,
  0xa87abc249c7b2649U, 0x48657954978934aaU, 0xc37b3bba996b7bb7U, 0xc48b55575a9c6a27U,
  0x94768687868a28a7U, 0xcb546bb2b8298467U, 0x62a59b79a54b8d86U, 0x43a376ca87477288U,
  0x534a62255766b956U, 0x4b3bb673788694a8U, 0xb68b5a97867476bbU, 0x156a975a445a6997U,
  0xb498537d66558656U, 0x496bb69066b4a948U, 0x66b6aa45cb69bb66U, 0x94c864ba94b6189bU,
  0x78b3a7288567776bU, 0x7958649987534948U, 0x887967c77859598aU, 0x64a5498473539a67U,
  0x36454a97859a8784U, 0xb45365a53964c595U, 0x4ac65c4764876995U, 0xc437581548b59357U,
  0xa8ab4b857d327767U, 0x62a89bad9649775cU, 0x7c996631a97678a8U, 0x54a65b88a1548587U,
  0x7ab642b385583637U, 0x88ba8ce73a4768bcU, 0x9825559567774757U, 0x669b95b2ba48c8c6U,
  0x6ba3b4876e25755bU, 0x6845656577b7a3b6U, 0x54a1244938782697U, 0x776a9187bb478677U,
  0xb3d6a4723458b569U, 0xd986978266b55394U, 0x9a5486788c478779U, 0x68787435b547d576U,
  0x699655858a673a74U, 0x93585ca4b755a9c4U, 0x489484959759dd88U, 0xc479ad7aa0838649U,
  0xa463a74ca98baa88U, 0x4a85468697255845U, 0x482cb786ba658787U, 0x7b4583a665b779b7U,
  0x8595332774a7b859U, 0x94b4b84979596468U, 0xb657468885879b3cU, 0xc59a4a56409889a9U,
  0x83b788658c5c3855U, 0x6593ba8877495c38U, 0xa459999779896b56U, 0xa57598766b44c1a5U,
  0xca6db2b968a06833U, 0x3639a86378474b7aU, 0x7c73bda2965895b5U, 0xc935969982598646U,
  0x66798446667588caU, 0xa4ab5cc9a9563879U, 0x6ac78993d8966f79U, 0x2966869a9545394bU,
  0x54695d359d867743U, 0x5574a49765385b83U, 0x9ca54c6295532284U, 0x545785888f975798U,
  0x3c954532b2697b9bU, 0x4b46795796743943U, 0x3564687bc694845aU, 0xbbbb944374765a24U,
  0x43899d26877615c5U, 0x68a8586877ca89acU, 0x8b77a89a65689777U, 0xc47a9853b9698878U,
  0x634476568caa79a4U, 0x6b445c904556a835U, 0x58458b69c87a6a76U, 0x8c255963949b753aU,
  0x7267acc97c9dbb67U, 0x8669465848465745U, 0x3664d57468461caaU, 0xd7165876698b5687U,
  0xab295696a6856854U, 0xa88a6c617994a763U, 0xa559b6763ba8ac85U, 0x5b5955b75989a74bU,
  0x3c6361499b45c6aaU, 0x39343549a865678cU, 0xb4452798997a88a8U, 0x3796665676a47785U,
  0x43a87aab3a693948U, 0x448584407592ab68U, 0x63496898c46a946aU, 0x8737635337aac45aU,
  0x76398476626f9358U, 0x877b89a7a836475aU, 0x988a62449975b9b8U, 0x65344856279a8776U,
  0x8b7739822399a559U, 0xd96a7aa148286857U, 0x8aa52b5857898175U, 0xa77759579a6988c4U,
  0x7b8648e87c747844U, 0xc97c7c869753a448U, 0x876b26895989a1acU, 0x4758569b5688999aU,
  0x98b6aa87c4a78345U, 0x2944892d59ad45caU, 0x75c536995966b666U, 0x5cc79a7b7787ccb8U,
  0x5696a9a572af9797U, 0x4b89767646695985U, 0x74778c5a36755474U, 0x8629687b9a457687U,
  0x5414835a84845415U, 0x8a6758336572a9a6U, 0x4c4586b583956c7aU, 0x9c8964765c44549aU,
  0x86d665b6be9d2586U, 0x5a95aa987994575aU, 0x4c65e64765643b8aU, 0xc53594769a738786U,
  0x388667446aaa9a88U, 0x37795b9c766b8888U, 0x965376a418874379U, 0xc887696987863354U,
  0xb6989ac873356549U, 0x95997745563ab469U, 0x9597aa8686a67375U, 0xc6a24794779a97b9U,
  0x4698445bb9c753bbU, 0xe679566c9664aa8bU, 0x9665a87b26576269U, 0x74476759536577abU,
  0x62b69bb4912f1884U, 0x896c876589362765U, 0xb944598689665239U, 0xc8b75778957b8a68U,
  0x65d76468588aa974U, 0x6959687486d34644U, 0x799a96a65b9a665aU, 0xc266977c9ba89c8bU,
  0x42968b2584886787U, 0x6a3a997a755a857bU, 0x6c938aa85769c85dU, 0x244a776b867c68a8U,
  0x83b658754966643aU, 0x57789b51998b3596U, 0x74b965757b46b669U, 0x553775839ab84153U,
  0x5b658b46a6883835U, 0x84b8a6a83864c79bU, 0x856b84a899a781b4U, 0xd6688ba3ab6a9665U,
  0x74657693389363baU, 0x9745595d496c2ba8U, 0x34d5543aa35a6d69U, 0x779c95485a478b49U,
  0x63797399896a8b64U, 0x7598869948644754U, 0x75aa658b698967a7U, 0x5a87aa6672838597U,
  0x665b7b653a947946U, 0x7866359e3887aa78U, 0xa489a2b862464598U, 0x9ac98b89934b32b6U,
  0x3b9c6b643c95296bU, 0xb389487c48259599U, 0x98843b4696973934U, 0x97c9b467ab938749U,
  0x4b6b7455a5ab6478U, 0x8947852e57ca6345U, 0x5b793b75b3976c7aU, 0xa6a78a693b48c989U,
  0x6397b6e46886a967U, 0xaa7b595447869a5aU, 0x4a7949c5a948a7b9U, 0x7a356775958c5738U,
  0x3857765b8388657aU, 0x37d64839b6a59977U, 0x4c28895971876985U, 0x8c49767a78868356U,
  0xa64b6b9787524447U, 0x73777c748748c8c7U, 0xaa859b4996795c4cU, 0x6793868b646a6656U,
  0xbc36c2a499ba8a77U, 0xc837467d9921478aU, 0x55746a66b8578f58U, 0x298956666898a938U,
  0xdb7549767653548aU, 0x96866973882a79b5U, 0xab9b5c477a78aa79U, 0x36b3748c685187c9U,
  0x9c7c49b665b7469bU, 0xdab58a5557356446U, 0xbb738a7939a46986U, 0xc438737477467a57U,
  0x337847764645648aU, 0x7798a3895646c88aU, 0x6896397856877c67U, 0x956868663c4c77b5U,
  0x84557a58a997b388U, 0xa5d85bb677c57a47U, 0xb4479763db8697a6U, 0x3866949a8d4ba648U,
  0x33d839684b86a9caU, 0x5c96aa3c46156a58U, 0x7ba972669679c3c5U, 0x6889466356597978U,
  0x839a6459b95a9aa9U, 0x577574db67679753U, 0xbca85d5792686a56U, 0x87738286a98c3984U,
  0x29a67a95a6a22a66U, 0x3559679b699a7519U, 0x84897652a7554d56U, 0x855594727b4b6548U,
  0x59b9854398559b49U, 0x458653d346273685U, 0x779835a9bcaa8d68U, 0x2a398589ba633ca3U,
  0x693672ac295f9665U, 0xaa47869a4929488aU, 0x4482bb7ab8655585U, 0x9a53999771466a76U,
  0x3c6a6863ba99545cU, 0x26484937b793b6b7U, 0x8bdb8758859b7d94U, 0x57d879699896d579U,
  0xac36367485a46a54U, 0x6887365559a5865dU, 0x847689888a5a5d45U, 0x67c94b84874b8a77U,
  0x44875779bb575678U, 0x689b74415724a53aU, 0x58aa587896895f86U, 0x68667aabba43a64aU,
  0x9d56c79b8ebe88c4U, 0x4523a474b864754aU, 0xc24564955776b7a5U, 0x8845799b73937547U,
  0x6c94457b68689896U, 0x94445bb968584989U, 0x99b6a884939a6976U, 0xc9778a7b4a476885U,
  0x83c59a66387a64a8U, 0x8989a84287678474U, 0x5897a7788a8a597aU, 0x397331a64d8b86a6U,
  0x84d64768965695b5U, 0x9644a9d89694b558U, 0x7a198b77bb5b748aU, 0x454663a538757d62U,
  0x3baa8c848b52d4a7U, 0x97884659a7b95797U, 0x6c58a355a99747d3U, 0xba93db8992568489U,
  0x7559ab7686a547b8U, 0xb6a49854986db7c6U, 0xb97576455585767aU, 0x849668a96b556579U,
  0x3a449327bcae4867U, 0x968375a786b7a438U, 0x47a7746549599929U, 0xb437799987999577U,
  0x7b435aa8a95a5455U, 0x4688ba97978897a4U, 0x76a978b73b8a6889U, 0x689966a294550822U,
  0x354995656b6d2a5aU, 0x5bbbac7ca6483436U, 0xba5a3473465a68a7U, 0x478a96a58c677695U,
  0xaaa5833a6a959997U, 0x6786757258445a3bU, 0x989a295ac958a585U, 0x88b66aba8ba7c71dU,
  0x623bb428528dd978U, 0x7c995ca69668b34cU, 0x4ba6987989934b43U, 0x8954599899778659U,
  0x93a2967b65a68877U, 0x675997bab87ba34aU, 0x75374b768973ab5aU, 0x374764578757792aU,
  0x849b7d954d6c9a64U, 0x9a6a9a97a7731679U, 0x9789773966679576U, 0x458989ab69469966U,
  0x85cb993786848b68U, 0x848246e477ca4649U, 0x67269a8669667b77U, 0xd24764795a598686U,
  0x89647ca576c08577U, 0x7665567855a42a36U, 0x95677ba245678677U, 0x59137aa2a5788765U,
  0x48664871ab5aa264U, 0x48247848352c8393U, 0x74a869477566a989U, 0xab169a9bac88a876U,
  0xb664bdcb8c8fa5b9U, 0x6449a57b8a2648b3U, 0x477879c257468875U, 0x38347b577b786776U,
  0x46894b9b7b697baaU, 0x79564a7b77a39639U, 0x7545375a89885e5bU, 0x4b6b6985a44a6bcbU,
  0xbf791bb0bebc3e2aU, 0x3f02326f3ffa58daU, 0xbdc601eabd0c1eb3U, 0x3d330f7f3f9afc38U,
  0x3f00f6c13d92d6b0U, 0x3f70d4c2bf4ac630U, 0x3ce36f443f2baa7aU, 0xc0230946c00d6d38U,
  0x3e937903bfb96697U, 0xbf030543bf1aae5eU, 0x3fbc057a3f052bdaU, 0xbefa61f2bf8d6834U,
  0xbed93dc8bf34c7a7U, 0x3fc12e1f3e37edd0U, 0x3fa72c20be82e3cbU, 0x3e4f3256be9c7043U,
  0x3ff96e03bf132747U, 0xbc95d420bb228ee5U, 0x3f80e9083fb22d94U, 0x3feb4e73bfb5cf1bU,
  0x3d6b750a3d99c2ffU, 0x3e9ab0a7bedcade5U, 0x3d48fa983e98c690U, 0x3e5a3663bc4c7d4eU,
  0xbe5b7d92bbd2913cU, 0xbe3a0badbdc27bd3U, 0xbe76dbb63f9aaf03U, 0xbe19027b3ee2c180U,
  0xbf52c2c83edd76a8U, 0xbf0a01493dbade8aU, 0xbd5afae5bd794f6dU, 0xbea1f5b53fb4dbfeU,
  0x3dc9d9b0bd2ba12bU, 0x3e03b1703caffb2bU, 0x3e58ff21bc6bcaafU, 0xbd68b6ff3d2b7183U,
  0x3d9e8e0f3db26bdeU, 0xbe3ad49d3d277921U, 0xbbd504fd3e2e0316U, 0x3dc245f53e2e8045U,
  0x3e5781ffbd5b2899U, 0x3dd6c574bdbcadb4U, 0xbe3c5c783e922ad5U, 0xbe20dcf93e148805U,
  0xbbcb463fbc63602bU, 0xbd859c5d3e170758U, 0xbd980cfebe368653U, 0xbe0e8b603e2bc10fU,
  0xbe78484cbd06e417U, 0x3e3218bebda52ca8U, 0x3d0ce1263d94aafaU, 0x3dcdde80bdd3da46U,
  0x3e2ed2e3bd9aa04cU, 0xbdec8e1cbe317dc7U, 0x3db8b141be232c8eU, 0x3e26e047be408b47U,
  0xbdc16a93be303d5dU, 0xbd81c6c8be3a58a9U, 0xbd0e4468bd51a31dU, 0x3e849dfabdfcef63U,
  0x3e588f01bdb8fddaU, 0xbe08081b3c987c21U, 0x3e24ba16bbb01f5dU, 0xbe253c13be251610U,
  0xbd0d8acfbe184fa6U, 0xbe3f2e3b3e4c4345U, 0xbe29acb7be2f6972U, 0x3e21739f3e2ea32dU,
  0x3e3c17c2be446f9fU, 0x3d3b8c97be1eb075U, 0xbe45495e3e297c4eU, 0xbe1c8d2ebdc39e0bU,
  0xbe754b92be4c4904U, 0x3cddd24abdc4845cU, 0x3ceb25e53e4a814aU, 0x3e671586bd3a5324U,
  0xbdb0d049bdc45e91U, 0xbd9c26bcbdc20de9U, 0x3e4be8eebbd8df43U, 0xbe5dda24be975165U,
  0x3c9ca2953d43ed48U, 0x3e1a82d2bd39a95dU, 0x3e0a66e5be2269e9U, 0xbc5712ecbb7bff4eU,
  0x3e406d5a3dcf5b53U, 0xbe33232e3e26f889U, 0xbd20e1613dc1c3caU, 0x3e1c49803e5d3ac9U,
  0x3dc2dae3bcf406c8U, 0x3e4a3d5abde2d7c9U, 0xbd5638f13e088f6fU, 0x3db8fe28be0ba8b3U,
  0x3e2cedca3e1c9cceU, 0x3cb8ce6dbe398178U, 0x3e55f99d3e17d170U, 0x3e3fea1f3d2c0492U,
  0xbe61938ebe10f2a4U, 0xbe19dbd5be148ccbU, 0x3d45c3053db8c11eU, 0x3d8abc963e698070U,
  0xbdcad5523bb314c0U, 0x3e3827bcbd879052U, 0x3cdd18723e28d7b6U, 0xbd709f313c8cbaf9U,
  0xbba568f43e097decU, 0x3d982a9c3df5acd8U, 0x3db95292bd146ab0U, 0x3e2413cc3c81b5afU,
  0x3bfef087be02e697U, 0xbe5c98a6bdc49827U, 0x3cde21443db2f113U, 0xbe43df5c3dcb9279U,
  0x3da197323e114d75U, 0x3e731bc83e47e437U, 0xbda67f36be5115beU, 0xbcffbc69bc8aef9eU,
  0x3e2d19a83cdcedc6U, 0x3d98b3b43d56c6a3U, 0x3c1527193d954e98U, 0x3e575c49bd7d5b22U,
  0xbdcc00373d65f758U, 0xbda5fdd7bd2a58bbU, 0xbe4195b83e22ef4fU, 0xbdf381853e4b3256U,
  0xbe2890dbbd15b56bU, 0x3de4e2ae3e1cd074U, 0xbe25f8453e43c26dU, 0xbdb30c093b150c4dU,
  0xbe257f203da07eb5U, 0xbe0a3b3f3e0ccfeeU, 0x3e1ccdfa3e45ad61U, 0x3d9d73d53df5f266U,
  0x3d922d123c6e4e1aU, 0x3e0966eb3e046d9fU, 0x3e02b6a6bd89f002U, 0x3da8d6bc3d8a7130U,
  0xbe2c29c0bd65256aU, 0xbdd265d9be441567U, 0xbd9861983e59a606U, 0x3e1904e53d7b433dU,
  0xbd4ae8f73e0e2c59U, 0xbe0dc0f5be1121f0U, 0xbd8dbe483daeb19bU, 0xbe8506843b880763U,
  0xbe0423503e07fb8cU, 0xbdd6e94ebe3d1cd9U, 0x3e4b097bbe406c6cU, 0xbd5f3d4a3db6f699U,
  0x3e5e0e6ebe146341U, 0xbe2860debe98e7caU, 0x3cac32b63e5c8c78U, 0x3d7dfb003e2a4dc6U,
  0x3e09ee043e3ebaf0U, 0x3e2240b3be73a4b2U, 0x3d411b31be54a369U, 0xbe1db4eebcab9e5aU,
  0x3e19e680bd8774d5U, 0xbd9c8758bdd9274bU, 0xbe676b613e3994cdU, 0xbe25f4a6be3610dfU,
  0x3c1ac066bd178e10U, 0xbd8902343e27c8ccU, 0x3e23a36b3e062852U, 0x3e286c0abcd49d6cU,
  0xbe0dc6a0bdaf3b25U, 0x3d4ad47ebbfe05ebU, 0x3dc6370b3de2fabbU, 0xbc2994debe35768fU,
  0x3d45b0a8bde05a78U, 0xbd9ca7c33e3842c2U, 0x3de0070bbb9702aeU, 0x3e719629bdd9a583U,
  0x3e220d87bdf72e62U, 0xbca3539c3e166852U, 0x3e59eecdbd4a2eeaU, 0xbe059e8fbd2b8b12U,
  0xbe21da3d3e42ae37U, 0xbdf020ccbd3a2681U, 0x3e2142f3bcb88f4cU, 0xbe8d67dfbdcffc69U,
  0x3d08f438be826f3fU, 0x3da9d2d43e0207e9U, 0xbd0f7d8f3df2926bU, 0xbdbc703f3e3714e6U,
  0x3d0a40633dddfaeeU, 0x3e5ac15cbd19783fU, 0xbe172ff63d9271adU, 0x3dff456ebd044b59U,
  0x3d7b391f3de4782aU, 0x3e5e113ebe23fdf7U, 0x3dae84c23dca7fa2U, 0xbe55abccbc9ba031U,
  0x3ec7073ebea12bb4U, 0x3e3da763bf16b578U, 0xbf494f8bU,
};


ai_handle g_failure_prediction_weights_table[1 + 2] = {
  AI_HANDLE_PTR(AI_MAGIC_MARKER),
  AI_HANDLE_PTR(s_failure_prediction_weights_array_u64),
  AI_HANDLE_PTR(AI_MAGIC_MARKER),
};

