/**
  ******************************************************************************
  * @file    mnist_data_params.c
  * @author  AST Embedded Analytics Research Platform
  * @date    2026-02-12T05:29:28+0100
  * @brief   AI Tool Automatic Code Generator for Embedded NN computing
  ******************************************************************************
  * Copyright (c) 2026 STMicroelectronics.
  * All rights reserved.
  *
  * This software is licensed under terms that can be found in the LICENSE file
  * in the root directory of this software component.
  * If no LICENSE file comes with this software, it is provided AS-IS.
  ******************************************************************************
  */

#include "mnist_data_params.h"


/**  Activations Section  ****************************************************/
ai_handle g_mnist_activations_table[1 + 2] = {
  AI_HANDLE_PTR(AI_MAGIC_MARKER),
  AI_HANDLE_PTR(NULL),
  AI_HANDLE_PTR(AI_MAGIC_MARKER),
};




/**  Weights Section  ********************************************************/
AI_ALIGNED(32)
const ai_u64 s_mnist_weights_array_u64[441] = {
  0x3e109fd33ec51dd8U, 0x3e9d018c3e4bd90bU, 0x3f079d6e3f1ab2f4U, 0xbf2d161fbeed2708U,
  0x3f800cdfbe45d7e3U, 0xbf02a6a13ec3045bU, 0xbf3a5f5c3f3549d6U, 0x3f6c3a5fbec835d3U,
  0xbc3e2f5d3d5bb636U, 0xbf949a1cbd820659U, 0xbfccd35ebff73558U, 0xbf856b97bfb0a995U,
  0xbf148557bf4d5ccfU, 0xbe2bb70cbebe5394U, 0x3e05055cbca84b6aU, 0x3f080a133ea5bf7fU,
  0x3f825a9c3f45c9a1U, 0x3fc61f3f3fa169afU, 0x7887989888889998U, 0x8788897989897988U,
  0x8788878777779799U, 0x8888898988989888U, 0x7988798878888788U, 0x8887888988797878U,
  0x8887787778877887U, 0x8778877999998988U, 0x8889888778887878U, 0x7787888787888889U,
  0x7888888877778878U, 0x7878878778888888U, 0x7878888787887889U, 0x9888777888778787U,
  0x7887878889888989U, 0x8888888887877788U, 0x8779878878877898U, 0x7888988888788878U,
  0x7887797777888788U, 0x8888898798888878U, 0x8988887888887787U, 0x7888888988898888U,
  0x8998889898777978U, 0x8888988888998889U, 0x7877888888988889U, 0x7746466a96868776U,
  0x7455664657788988U, 0x7765555566655456U, 0x6777676556697888U, 0x79a8969796675968U,
  0x89989b7989868579U, 0x86968aa886869977U, 0x888a9b9c9b8b6a68U, 0xaa8968a58ac89a9aU,
  0x8668697b8dab9aacU, 0x97abba9b8a887b98U, 0xc77895667a8b8c7aU, 0x7b7a75a7b9ac9abfU,
  0x97bcc759a9778a8aU, 0x87778a986476b7b7U, 0x85a3b5b9a8586799U, 0x79678998887a8965U,
  0x6755667476959768U, 0x67589874778a8979U, 0x695a595a78789478U, 0x9ca8987857979696U,
  0xca988a7b6c5e6dafU, 0x7c8c7dbab77797bbU, 0x97a9ec989b8c9b7bU, 0x797aba9b9a787777U,
  0xa877688899a9a988U, 0xabaa9abbceddcbc9U, 0x8c99a978659abaacU, 0x7899968678788b8cU,
  0x6554555677674567U, 0x3635577795b6c4a4U, 0xb7a9766656564737U, 0x49572414566587a9U,
  0x9786aa9b8a7c7b8aU, 0x7c9b786737797887U, 0x9c79a8b6d6b97b7bU, 0x7b6c7c7a6849369dU,
  0x598c8c6989a9b8baU, 0x8ba9a98b7d768978U, 0x78a8ba7a7a5a7a8aU, 0x6a9a8997b8b87a6aU,
  0x5a5979899b9a6849U, 0x7677879898a69796U, 0xa595776ba877bba6U, 0x8966564567779796U,
  0x7669788996888878U, 0x976779ab889a7987U, 0xbbaaaaaaaaababb8U, 0xa898a8988766a8baU,
  0x8798888676879697U, 0x564556669898a898U, 0x85779a8879766867U, 0x79776666564657a8U,
  0x378988a6a8989887U, 0x9979796a5b6c6747U, 0x6c6c56599ab9a8a7U, 0xa8a999896a7b8c7dU,
  0x9d7c6b5b9a98cbb8U, 0xabbaa8a999697c9dU, 0x6aac9b9c9a675a97U, 0x67b94baba9a8997aU,
  0x98896a9b998b9a88U, 0xa97a67985d889795U, 0x65758789799d8d8aU, 0x8d7b7b7b67884878U,
  0x44997878688a7c9dU, 0x8b8c8b6c6c7b56b8U, 0x5788547aaa898898U, 0x9898a8aa8b7c7d7aU,
  0x5556679885798878U, 0x7799a79896967574U, 0x7743243769a87775U, 0xa888334598a66575U,
  0x6789987778787978U, 0x6878777878787667U, 0x9a76656766374758U, 0x66687868776a6998U,
  0x9989955454544368U, 0x4c4e7a7879884777U, 0x3475766866475d5aU, 0x4a4d7d8e9ba6dac8U,
  0xdbd967ba87776975U, 0xa7856aadab9a8ab7U, 0x8ca9bbd89bacbbb6U, 0x86a8baa6799fbc9aU,
  0x7ebdbca8aed96887U, 0x5699788a7a785a3cU, 0x66272c9cbcacb898U, 0xb8881579bbb9a988U,
  0x9a9a9a52293b78a8U, 0x59797978575699a8U, 0x488b9a998a88563aU, 0x7a855a744868ab34U,
  0xab34689a99998988U, 0x9a888a99a79a6978U, 0x796867377899ab88U, 0xaa99a78898786558U,
  0x9a78787878489abbU, 0x98aabbabbabbb99aU, 0x8aa7788698777778U, 0x76cbb6b8b88b999aU,
  0x7779797a57588879U, 0x67a8cb8984768687U, 0xa7b6a7a89baa8a87U, 0xa66a4999dda6a6a6U,
  0x8596b6c6c7b9a9a8U, 0x998a88796aa89997U, 0x676654556696baa8U, 0x795b7a8b7a773998U,
  0x4879454a57476786U, 0x5868695c7b8a7a64U, 0x78686749479b7b69U, 0x8a7a7a6a49577885U,
  0x586879899879678bU, 0x799a8b7a8a795859U, 0xaaba977987978888U, 0x98597899a99898aaU,
  0x99aac7c9b7a5888aU, 0xb9b7c868697a8779U, 0x988898a8b8a8bb99U, 0xc9bbb879987896acU,
  0x79dbbabb7889a8c9U, 0x8898787898798988U, 0x9789989778898887U, 0x8788887887798887U,
  0x8788889988887788U, 0x8787888978889979U, 0x8879978887788979U, 0x7888778988888779U,
  0x7879898889887898U, 0x9887878778788878U, 0x8988778888987897U, 0x8787988888878888U,
  0x8888788988888889U, 0x7878887878788888U, 0x7878887888887878U, 0x8888888779887788U,
  0x8888878878888897U, 0x8888887877778888U, 0x8888899888888878U, 0x9888978888877887U,
  0x8788888878988998U, 0x9889988889887778U, 0x7877888777888898U, 0x8888888788897988U,
  0x8888888897888988U, 0xa9a8a8a999988977U, 0x99aaa9b9aabacabaU, 0xaba9a987b9a898a9U,
  0xa888998b69887abbU, 0x7c6b7d9a898987a9U, 0x9998777a8b8c7a7cU, 0x6a6b6a6a68587897U,
  0x4a5c9968898a8a77U, 0x7a686a6b69666665U, 0x6564668759584766U, 0x45558a79798b6655U,
  0x7a97b5a5865748a8U, 0x67c7869699886869U, 0x89889bbaa8b8bb89U, 0xba8ba7c8b6cbb799U,
  0xb7c8baaabbab8abbU, 0x7a8b9887ba67fbb8U, 0xbaa7b7b6b8b9a988U, 0xa69697887679a7a8U,
  0x98b9a985a7b7b6b6U, 0xa877767a7aab7b88U, 0x868758a8b95467a9U, 0x5865666665667676U,
  0x1303145879998933U, 0x9976672404243534U, 0x7698a68787888898U, 0xa889888888769793U,
  0xa796a697868998baU, 0xa788b99885766775U, 0x6767869798979687U, 0x969586989767a786U,
  0xa7a7887989989997U, 0x9787869697969899U, 0xc998bab9999abaabU, 0xaa998b997b7b9898U,
  0x8e8a79787abaaaaaU, 0x98779699acbcab8cU, 0xca9c7c8b7978388bU, 0x5c7b787798768abbU,
  0x6676978997aa9a89U, 0xb6ba478d6c7b9a86U, 0x9b987567788998baU, 0x9ba8ba8a348d9d7cU,
  0x7b6a7a788777998aU, 0x969897777977335aU, 0x55485a68567796a6U, 0x97b7b5a494879898U,
  0x9889776569576687U, 0x66466789bab8b8b7U, 0x9899998989666566U, 0x97777788a7977687U,
  0x4626466799989988U, 0x8955565666575655U, 0x86a6735456988889U, 0x79aa695567655466U,
  0xa6a6b6b5b6978979U, 0xa69499a978778696U, 0x8889a7c6b5b6b8b8U, 0xa7b8aaa5a8a99778U,
  0xa88b9b9998aac8b7U, 0xaab899b8b6b8c7a9U, 0x9899b7a889a8999bU, 0x989a997787858596U,
  0x78668779a58787a8U, 0x9798998787968989U, 0x8979676567994468U, 0xa878898879788aaaU,
  0x7a7a6b796a664769U, 0x5879a888778a6959U, 0x687b7a6b6c6a9995U, 0x8e88898887868869U,
  0x797a6a5c7c6d6b7bU, 0x7aaaabbab9996755U, 0x89469b978a8a7b79U, 0xbaa9888898797888U,
  0x88988889879888baU, 0x3232323768888898U, 0x6aa9a97887675445U, 0x7778595a695e485aU,
  0x56346798c8487676U, 0x66887987694b4c5bU, 0x8b574863797c9948U, 0x9788aab8b8caba99U,
  0xbabbca774648597cU, 0x776b6778dcdbc6c9U, 0xb6645a7abba76899U, 0x7c8c99876988ddc7U,
  0xa84559384a7999b6U, 0x999b8a7697c69769U, 0x68688b66675a6979U, 0x596879a986949477U,
  0x76451777bb8a565aU, 0x766c786777988788U, 0x8bab8c867889ba8bU, 0xa9ba958979898a8aU,
  0xa9aaac9a7b675788U, 0x88899989a898999aU, 0x7986765545483657U, 0x8987988898677945U,
  0x89a8894759888888U, 0x7879699999889888U, 0x6576baccccab8d69U, 0x8a8a7b7c6a89a988U,
  0x9677a8c9d7bbab9aU, 0x988a7a7a8a9b8a6aU, 0x8d8d9487ccc995a7U, 0x96959686797a7b7dU,
  0x7c7d8c6e9957cba6U, 0xa88574837476898bU, 0xb8da9b8b7a7a6a68U, 0x89785666757596a7U,
  0x97b8c7d9b9979787U, 0x75868b8a47686787U, 0x89799aa9b9b6a465U, 0x758686a9b6aa4969U,
  0x588a8a8b9a9a9874U, 0x9886879585a6a999U, 0xb9587a8b8b9a9b9bU, 0x899a8a8997767777U,
  0xa899a9a77869898bU, 0x998ba999999aacbaU, 0xcabb65788878989cU, 0x98eba69697a7a7a8U,
  0x7889988877888879U, 0x9778788888878887U, 0x8788887888888898U, 0x8988789999888988U,
  0x7888789887878789U, 0x9889898889879988U, 0x9878878779778888U, 0x8878877898798799U,
  0x9798887887888788U, 0x8778777888778888U, 0x8988888888888878U, 0x7888977777888788U,
  0x8888787779988788U, 0x9878888778878898U, 0x8888788789888888U, 0x8888877888878888U,
  0x7788787887877878U, 0x9888988888888778U, 0x8788778877877777U, 0x7778889989798988U,
  0x8879887779777888U, 0x8888988988889999U, 0x9988798987888888U, 0x9888889899998788U,
  0x8878878888788889U, 0x8878797967587988U, 0x8a96775657887778U, 0x9abcbe858786859bU,
  0x97a6a5a796685777U, 0x59a7bba988a69786U, 0x89a8a899989ba478U, 0x9a9a8777b9746687U,
  0x87797978788a8b9dU, 0x8b9b7da96977b997U, 0xbaabaa9a87776768U, 0x666789a99a697a97U,
  0x6777daaaab7a6868U, 0x8988877998a99789U, 0x9c695597caa6a99bU, 0x9699aaa99899acacU,
  0xbb9c9b786a57d994U, 0xa7a5b7a8a8ba9aacU, 0x8a9b9b7c7d7b7797U, 0x96b866769697a999U,
  0x9688899887786a6cU, 0x6679988766aab9a7U, 0xc8b7958686768598U, 0x59797a9a977889c9U,
  0x7856775767575858U, 0xa8a7687778787778U, 0x676778886878689aU, 0x67a9b8cabbb9ba7aU,
  0xc9b999679b8b6875U, 0x566697a6b5c9c6b8U, 0xc4c4a5a6b8579a56U, 0x86666a6a89a9b9b5U,
  0xb8b6c5b2a3a6ba68U, 0x9568868a6a6b7b89U, 0x8c789586a594a3c6U, 0x73856648b9caa98bU,
  0x8579897888947483U, 0x746463546a699b95U, 0xa87464667799aba5U, 0x9bb795757a99bab8U,
  0xbc78b99686757788U, 0x899998a78a6a7bb8U, 0xaaa9aa89bab99797U, 0xb9b9b8a998868a9bU,
  0x959798b9c9d898a8U, 0x88caa9aaa9989886U, 0x94a5a384a3787897U, 0x577799b7a8b9aa97U,
  0xa798a7a6a5a6b575U, 0x99999989696968aaU, 0x88997957697989a9U, 0xb59898aa69999899U,
  0xa9869a7778878a98U, 0x7aaaa8aababaca99U, 0xdaba7a9a7a696759U, 0x7c7c6a88a8b9bcbeU,
  0xb7b6e9d978888b6bU, 0x7b6c6c7d8a8696a7U, 0x86897795c9a96768U, 0x55477c7b8b7c7966U,
  0x8b7a999a6975b8b9U, 0xb8b822356995babcU, 0xb9baa9789a8a7b76U, 0x757889a8475799a7U,
  0x89779999a9978979U, 0x8886745666b93778U, 0x67667798999a9998U, 0x7a79696866667a88U,
  0x58899a4457797969U, 0x799a8b7c7a7a7674U, 0xaecab998ba545668U, 0x5878797b7d7e7d8dU,
  0xacdbcbbbb8989855U, 0x97466878696a6a6bU, 0x3f5d0091bd9342f9U, 0xbf8086f1bf24025eU,
  0x3ea0b8a53ef9f927U, 0x3f1a7d20bd18e452U, 0x3e2fcfd7bf116cd3U, 0x3ebe91563f4aa3e3U,
  0xbee74e57bd75cf1cU, 0x3e8573ff3ed5a199U, 0xbfaf180ebfcd136fU, 0xbf8caf0fbf9ed4daU,
  0xbf2aa36cbf6f4ca7U, 0xbe9772d3beef21e8U, 0x3d0de916bdfbb9d7U, 0x3eac9a5d3e452972U,
  0x3f316bc43efd209cU, 0x3f8a1fa53f672eecU, 0x69aa61c58b8cab98U, 0xba61ea378dca78a6U,
  0xd88b3568bd899969U, 0xcaa56ac88877b4b7U, 0x3c8c7b85aa806b7cU, 0x82b8fd87777cb78aU,
  0x489b9a738d8adb72U, 0x8c99756d89e9659aU, 0xa88a6aa96756ad76U, 0x79ba8a9a7357d7acU,
  0x3f402784bf0ad9f2U, 0x3f16faea3ea2c1e5U, 0x3e82621ebe2ee2abU, 0x3e27d9c2bf0a3039U,
  0xbdcfcd81bf4ae30cU,
};


ai_handle g_mnist_weights_table[1 + 2] = {
  AI_HANDLE_PTR(AI_MAGIC_MARKER),
  AI_HANDLE_PTR(s_mnist_weights_array_u64),
  AI_HANDLE_PTR(AI_MAGIC_MARKER),
};

